{
  "version": "1.0",
  "truncation": null,
  "padding": null,
  "added_tokens": [
    {
      "id": 0,
      "content": "[UNK]",
      "single_word": false,
      "lstrip": false,
      "rstrip": false,
      "normalized": false,
      "special": true
    },
    {
      "id": 1,
      "content": "[CLS]",
      "single_word": false,
      "lstrip": false,
      "rstrip": false,
      "normalized": false,
      "special": true
    },
    {
      "id": 2,
      "content": "[SEP]",
      "single_word": false,
      "lstrip": false,
      "rstrip": false,
      "normalized": false,
      "special": true
    },
    {
      "id": 3,
      "content": "[PAD]",
      "single_word": false,
      "lstrip": false,
      "rstrip": false,
      "normalized": false,
      "special": true
    },
    {
      "id": 4,
      "content": "[MASK]",
      "single_word": false,
      "lstrip": false,
      "rstrip": false,
      "normalized": false,
      "special": true
    }
  ],
  "normalizer": null,
  "pre_tokenizer": {
    "type": "Sequence",
    "pretokenizers": [
      {
        "type": "Whitespace"
      }
    ]
  },
  "post_processor": null,
  "decoder": null,
  "model": {
    "type": "BPE",
    "dropout": null,
    "unk_token": "[UNK]",
    "continuing_subword_prefix": null,
    "end_of_word_suffix": null,
    "fuse_unk": false,
    "byte_fallback": false,
    "vocab": {
      "[UNK]": 0,
      "[CLS]": 1,
      "[SEP]": 2,
      "[PAD]": 3,
      "[MASK]": 4,
      "\u0000": 5,
      "\u0001": 6,
      "\u0002": 7,
      "\u0003": 8,
      "\u0004": 9,
      "\u0005": 10,
      "\u0006": 11,
      "\u0007": 12,
      "\b": 13,
      "\u000e": 14,
      "\u0010": 15,
      "\u0011": 16,
      "\u0012": 17,
      "\u0013": 18,
      "\u0014": 19,
      "\u0015": 20,
      "\u0016": 21,
      "\u0017": 22,
      "\u0018": 23,
      "\u0019": 24,
      "\u001a": 25,
      "\u001b": 26,
      "\u001c": 27,
      "\u001d": 28,
      "\u001e": 29,
      "\u001f": 30,
      "!": 31,
      "\"": 32,
      "#": 33,
      "$": 34,
      "%": 35,
      "&": 36,
      "'": 37,
      "(": 38,
      ")": 39,
      "*": 40,
      "+": 41,
      ",": 42,
      "-": 43,
      ".": 44,
      "/": 45,
      "0": 46,
      "1": 47,
      "2": 48,
      "3": 49,
      "4": 50,
      "5": 51,
      "6": 52,
      "7": 53,
      "8": 54,
      "9": 55,
      ":": 56,
      ";": 57,
      "<": 58,
      "=": 59,
      ">": 60,
      "?": 61,
      "@": 62,
      "A": 63,
      "B": 64,
      "C": 65,
      "D": 66,
      "E": 67,
      "F": 68,
      "G": 69,
      "H": 70,
      "I": 71,
      "J": 72,
      "K": 73,
      "L": 74,
      "M": 75,
      "N": 76,
      "O": 77,
      "P": 78,
      "Q": 79,
      "R": 80,
      "S": 81,
      "T": 82,
      "U": 83,
      "V": 84,
      "W": 85,
      "X": 86,
      "Y": 87,
      "Z": 88,
      "[": 89,
      "\\": 90,
      "]": 91,
      "^": 92,
      "_": 93,
      "`": 94,
      "a": 95,
      "b": 96,
      "c": 97,
      "d": 98,
      "e": 99,
      "f": 100,
      "g": 101,
      "h": 102,
      "i": 103,
      "j": 104,
      "k": 105,
      "l": 106,
      "m": 107,
      "n": 108,
      "o": 109,
      "p": 110,
      "q": 111,
      "r": 112,
      "s": 113,
      "t": 114,
      "u": 115,
      "v": 116,
      "w": 117,
      "x": 118,
      "y": 119,
      "z": 120,
      "{": 121,
      "|": 122,
      "}": 123,
      "~": 124,
      "": 125,
      "": 126,
      "": 127,
      "": 128,
      "": 129,
      "": 130,
      "": 131,
      "": 132,
      "": 133,
      "": 134,
      "": 135,
      "": 136,
      "": 137,
      "": 138,
      "": 139,
      "": 140,
      "": 141,
      "": 142,
      "": 143,
      "": 144,
      "": 145,
      "": 146,
      "": 147,
      "¡": 148,
      "¢": 149,
      "£": 150,
      "¤": 151,
      "¥": 152,
      "¦": 153,
      "§": 154,
      "¨": 155,
      "©": 156,
      "ª": 157,
      "«": 158,
      "¬": 159,
      "­": 160,
      "®": 161,
      "¯": 162,
      "°": 163,
      "±": 164,
      "²": 165,
      "³": 166,
      "´": 167,
      "µ": 168,
      "·": 169,
      "¸": 170,
      "¹": 171,
      "º": 172,
      "»": 173,
      "¼": 174,
      "½": 175,
      "¾": 176,
      "¿": 177,
      "À": 178,
      "Á": 179,
      "Â": 180,
      "Ã": 181,
      "Ä": 182,
      "Å": 183,
      "Æ": 184,
      "Ç": 185,
      "È": 186,
      "É": 187,
      "Ê": 188,
      "Ë": 189,
      "Ì": 190,
      "Í": 191,
      "Î": 192,
      "Ï": 193,
      "Ð": 194,
      "Ñ": 195,
      "Ò": 196,
      "Ó": 197,
      "Ô": 198,
      "Õ": 199,
      "Ö": 200,
      "×": 201,
      "Ø": 202,
      "Ù": 203,
      "Ú": 204,
      "Û": 205,
      "Ü": 206,
      "Ý": 207,
      "Þ": 208,
      "ß": 209,
      "à": 210,
      "á": 211,
      "â": 212,
      "ã": 213,
      "ä": 214,
      "å": 215,
      "æ": 216,
      "ç": 217,
      "è": 218,
      "é": 219,
      "ê": 220,
      "ë": 221,
      "ì": 222,
      "í": 223,
      "î": 224,
      "ï": 225,
      "ð": 226,
      "ñ": 227,
      "ò": 228,
      "ó": 229,
      "ô": 230,
      "õ": 231,
      "ö": 232,
      "÷": 233,
      "ø": 234,
      "ù": 235,
      "ú": 236,
      "û": 237,
      "ü": 238,
      "ý": 239,
      "þ": 240,
      "Ā": 241,
      "ā": 242,
      "Ă": 243,
      "ă": 244,
      "ą": 245,
      "Ć": 246,
      "ć": 247,
      "ċ": 248,
      "Č": 249,
      "č": 250,
      "ď": 251,
      "Đ": 252,
      "đ": 253,
      "Ē": 254,
      "ē": 255,
      "ĕ": 256,
      "ė": 257,
      "ę": 258,
      "ě": 259,
      "Ĝ": 260,
      "ğ": 261,
      "Ġ": 262,
      "ġ": 263,
      "ģ": 264,
      "ĥ": 265,
      "ħ": 266,
      "Ĩ": 267,
      "ĩ": 268,
      "Ī": 269,
      "ī": 270,
      "ĭ": 271,
      "Į": 272,
      "į": 273,
      "İ": 274,
      "ı": 275,
      "ĵ": 276,
      "ķ": 277,
      "ĸ": 278,
      "Ļ": 279,
      "ļ": 280,
      "Ľ": 281,
      "ľ": 282,
      "ŀ": 283,
      "Ł": 284,
      "ł": 285,
      "Ń": 286,
      "ń": 287,
      "ņ": 288,
      "Ň": 289,
      "ň": 290,
      "ŋ": 291,
      "Ō": 292,
      "ō": 293,
      "ŏ": 294,
      "ő": 295,
      "Œ": 296,
      "œ": 297,
      "Ŕ": 298,
      "ŕ": 299,
      "ŗ": 300,
      "Ř": 301,
      "ř": 302,
      "Ś": 303,
      "ś": 304,
      "ŝ": 305,
      "Ş": 306,
      "ş": 307,
      "Š": 308,
      "š": 309,
      "Ţ": 310,
      "ţ": 311,
      "ť": 312,
      "ŧ": 313,
      "Ũ": 314,
      "ũ": 315,
      "Ū": 316,
      "ū": 317,
      "ŭ": 318,
      "ů": 319,
      "ű": 320,
      "ų": 321,
      "Ŵ": 322,
      "ŵ": 323,
      "Ŷ": 324,
      "ŷ": 325,
      "Ÿ": 326,
      "ź": 327,
      "Ż": 328,
      "ż": 329,
      "Ž": 330,
      "ž": 331,
      "Ə": 332,
      "ƒ": 333,
      "Ơ": 334,
      "ơ": 335,
      "Ư": 336,
      "ư": 337,
      "Ʒ": 338,
      "Ƹ": 339,
      "ǎ": 340,
      "ǐ": 341,
      "ǒ": 342,
      "ǔ": 343,
      "ǖ": 344,
      "ǡ": 345,
      "Ǣ": 346,
      "ǣ": 347,
      "ǫ": 348,
      "ǭ": 349,
      "Ǵ": 350,
      "ǵ": 351,
      "ǹ": 352,
      "Ǻ": 353,
      "ǽ": 354,
      "Ǿ": 355,
      "ȁ": 356,
      "ȃ": 357,
      "ȅ": 358,
      "ȏ": 359,
      "ȕ": 360,
      "ș": 361,
      "ɐ": 362,
      "ɑ": 363,
      "ɒ": 364,
      "ɔ": 365,
      "ɕ": 366,
      "ɗ": 367,
      "ə": 368,
      "ɛ": 369,
      "ɡ": 370,
      "ɢ": 371,
      "ɤ": 372,
      "ɨ": 373,
      "ɪ": 374,
      "ɬ": 375,
      "ɯ": 376,
      "ɰ": 377,
      "ɲ": 378,
      "ɴ": 379,
      "ɷ": 380,
      "ɸ": 381,
      "ɾ": 382,
      "ʀ": 383,
      "ʁ": 384,
      "ʃ": 385,
      "ʉ": 386,
      "ʊ": 387,
      "ʒ": 388,
      "ʔ": 389,
      "ʙ": 390,
      "ʜ": 391,
      "ʟ": 392,
      "ʰ": 393,
      "ʲ": 394,
      "ʴ": 395,
      "ʹ": 396,
      "ʺ": 397,
      "ʻ": 398,
      "ʼ": 399,
      "ˁ": 400,
      "˂": 401,
      "˃": 402,
      "ˇ": 403,
      "ˈ": 404,
      "ˊ": 405,
      "ˌ": 406,
      "ˏ": 407,
      "ː": 408,
      "˙": 409,
      "˚": 410,
      "˜": 411,
      "˝": 412,
      "˥": 413,
      "˦": 414,
      "˧": 415,
      "˩": 416,
      "˭": 417,
      "˹": 418,
      "̀": 419,
      "́": 420,
      "̂": 421,
      "̃": 422,
      "̄": 423,
      "̆": 424,
      "̉": 425,
      "̌": 426,
      "̍": 427,
      "̏": 428,
      "̑": 429,
      "̒": 430,
      "̕": 431,
      "̖": 432,
      "̜": 433,
      "̞": 434,
      "̣": 435,
      "̤": 436,
      "̩": 437,
      "̯": 438,
      "̰": 439,
      "̴": 440,
      "̵": 441,
      "̀": 442,
      "́": 443,
      "͘": 444,
      "͡": 445,
      "ͧ": 446,
      "ʹ": 447,
      "͹": 448,
      "ͺ": 449,
      "ͻ": 450,
      "΄": 451,
      "Ά": 452,
      "·": 453,
      "Α": 454,
      "Β": 455,
      "Γ": 456,
      "Δ": 457,
      "Ε": 458,
      "Η": 459,
      "Ι": 460,
      "Κ": 461,
      "Λ": 462,
      "Μ": 463,
      "Ν": 464,
      "Ο": 465,
      "Π": 466,
      "Σ": 467,
      "Τ": 468,
      "Υ": 469,
      "Φ": 470,
      "Χ": 471,
      "Ω": 472,
      "ά": 473,
      "έ": 474,
      "ή": 475,
      "ί": 476,
      "α": 477,
      "β": 478,
      "γ": 479,
      "δ": 480,
      "ε": 481,
      "ζ": 482,
      "η": 483,
      "θ": 484,
      "ι": 485,
      "κ": 486,
      "λ": 487,
      "μ": 488,
      "ν": 489,
      "ξ": 490,
      "ο": 491,
      "π": 492,
      "ρ": 493,
      "ς": 494,
      "σ": 495,
      "τ": 496,
      "υ": 497,
      "φ": 498,
      "χ": 499,
      "ψ": 500,
      "ω": 501,
      "ό": 502,
      "ύ": 503,
      "ώ": 504,
      "ϕ": 505,
      "Ё": 506,
      "Є": 507,
      "І": 508,
      "Ї": 509,
      "Ј": 510,
      "Ў": 511,
      "А": 512,
      "Б": 513,
      "В": 514,
      "Г": 515,
      "Д": 516,
      "Е": 517,
      "Ж": 518,
      "З": 519,
      "И": 520,
      "К": 521,
      "Л": 522,
      "М": 523,
      "Н": 524,
      "О": 525,
      "П": 526,
      "Р": 527,
      "С": 528,
      "Т": 529,
      "У": 530,
      "Ф": 531,
      "Х": 532,
      "Ц": 533,
      "Ч": 534,
      "Ш": 535,
      "Щ": 536,
      "Ъ": 537,
      "Ы": 538,
      "Ь": 539,
      "Э": 540,
      "Ю": 541,
      "Я": 542,
      "а": 543,
      "б": 544,
      "в": 545,
      "г": 546,
      "д": 547,
      "е": 548,
      "ж": 549,
      "з": 550,
      "и": 551,
      "й": 552,
      "к": 553,
      "л": 554,
      "м": 555,
      "н": 556,
      "о": 557,
      "п": 558,
      "р": 559,
      "с": 560,
      "т": 561,
      "у": 562,
      "ф": 563,
      "х": 564,
      "ц": 565,
      "ч": 566,
      "ш": 567,
      "щ": 568,
      "ъ": 569,
      "ы": 570,
      "ь": 571,
      "э": 572,
      "ю": 573,
      "я": 574,
      "ё": 575,
      "ѓ": 576,
      "є": 577,
      "ѕ": 578,
      "і": 579,
      "ї": 580,
      "ј": 581,
      "љ": 582,
      "њ": 583,
      "ћ": 584,
      "ќ": 585,
      "ѡ": 586,
      "ѣ": 587,
      "ѧ": 588,
      "ѩ": 589,
      "ѭ": 590,
      "ѳ": 591,
      "Ѵ": 592,
      "ѵ": 593,
      "ѷ": 594,
      "ѹ": 595,
      "Ѻ": 596,
      "҄": 597,
      "җ": 598,
      "Қ": 599,
      "қ": 600,
      "ҝ": 601,
      "ҡ": 602,
      "ң": 603,
      "Ҥ": 604,
      "ҥ": 605,
      "ҧ": 606,
      "ҩ": 607,
      "Ҫ": 608,
      "ҫ": 609,
      "Ү": 610,
      "ү": 611,
      "ҳ": 612,
      "Ҵ": 613,
      "Ҷ": 614,
      "ҷ": 615,
      "ҹ": 616,
      "һ": 617,
      "Ӂ": 618,
      "ӗ": 619,
      "ә": 620,
      "ӣ": 621,
      "ӧ": 622,
      "ө": 623,
      "ӯ": 624,
      "ԛ": 625,
      "ԭ": 626,
      "Ա": 627,
      "Դ": 628,
      "Ե": 629,
      "Թ": 630,
      "Լ": 631,
      "Խ": 632,
      "Հ": 633,
      "Շ": 634,
      "Վ": 635,
      "՜": 636,
      "ա": 637,
      "բ": 638,
      "դ": 639,
      "ե": 640,
      "զ": 641,
      "ը": 642,
      "թ": 643,
      "ի": 644,
      "խ": 645,
      "կ": 646,
      "հ": 647,
      "ղ": 648,
      "ճ": 649,
      "մ": 650,
      "յ": 651,
      "ն": 652,
      "շ": 653,
      "ո": 654,
      "չ": 655,
      "պ": 656,
      "ռ": 657,
      "ս": 658,
      "վ": 659,
      "տ": 660,
      "ր": 661,
      "ց": 662,
      "ւ": 663,
      "փ": 664,
      "ք": 665,
      "օ": 666,
      "֏": 667,
      "֧": 668,
      "ְ": 669,
      "ֲ": 670,
      "ִ": 671,
      "ַ": 672,
      "ָ": 673,
      "ֹ": 674,
      "א": 675,
      "ב": 676,
      "ג": 677,
      "ד": 678,
      "ה": 679,
      "ו": 680,
      "ז": 681,
      "ח": 682,
      "ט": 683,
      "י": 684,
      "ך": 685,
      "כ": 686,
      "ל": 687,
      "ם": 688,
      "מ": 689,
      "ן": 690,
      "נ": 691,
      "ס": 692,
      "ע": 693,
      "ף": 694,
      "פ": 695,
      "ץ": 696,
      "צ": 697,
      "ק": 698,
      "ר": 699,
      "ש": 700,
      "ת": 701,
      "ײ": 702,
      "،": 703,
      "؟": 704,
      "ء": 705,
      "آ": 706,
      "أ": 707,
      "ؤ": 708,
      "إ": 709,
      "ئ": 710,
      "ا": 711,
      "ب": 712,
      "ة": 713,
      "ت": 714,
      "ث": 715,
      "ج": 716,
      "ح": 717,
      "خ": 718,
      "د": 719,
      "ذ": 720,
      "ر": 721,
      "ز": 722,
      "س": 723,
      "ش": 724,
      "ص": 725,
      "ض": 726,
      "ط": 727,
      "ظ": 728,
      "ع": 729,
      "غ": 730,
      "ف": 731,
      "ق": 732,
      "ك": 733,
      "ل": 734,
      "م": 735,
      "ن": 736,
      "ه": 737,
      "و": 738,
      "ى": 739,
      "ي": 740,
      "َ": 741,
      "ُ": 742,
      "ّ": 743,
      "٠": 744,
      "١": 745,
      "٪": 746,
      "ٹ": 747,
      "ٻ": 748,
      "پ": 749,
      "چ": 750,
      "ڈ": 751,
      "ڌ": 752,
      "ژ": 753,
      "ښ": 754,
      "ڤ": 755,
      "ک": 756,
      "گ": 757,
      "ڻ": 758,
      "ھ": 759,
      "ہ": 760,
      "ۂ": 761,
      "ی": 762,
      "ے": 763,
      "۞": 764,
      "۩": 765,
      "ܐ": 766,
      "ܒ": 767,
      "ܓ": 768,
      "ܕ": 769,
      "ܗ": 770,
      "ܘ": 771,
      "ܙ": 772,
      "ܚ": 773,
      "ܛ": 774,
      "ܝ": 775,
      "ܟ": 776,
      "ܠ": 777,
      "ܡ": 778,
      "ܢ": 779,
      "ܣ": 780,
      "ܥ": 781,
      "ܦ": 782,
      "ܨ": 783,
      "ܩ": 784,
      "ܪ": 785,
      "ܫ": 786,
      "ܬ": 787,
      "ݢ": 788,
      "ހ": 789,
      "ނ": 790,
      "ރ": 791,
      "ބ": 792,
      "ޅ": 793,
      "ކ": 794,
      "އ": 795,
      "ވ": 796,
      "މ": 797,
      "ފ": 798,
      "ދ": 799,
      "ތ": 800,
      "ލ": 801,
      "ގ": 802,
      "ސ": 803,
      "ޑ": 804,
      "ޒ": 805,
      "ޓ": 806,
      "ޔ": 807,
      "ޕ": 808,
      "ޖ": 809,
      "ޗ": 810,
      "ޝ": 811,
      "ޟ": 812,
      "ޣ": 813,
      "ަ": 814,
      "ާ": 815,
      "ި": 816,
      "ީ": 817,
      "ު": 818,
      "ޫ": 819,
      "ެ": 820,
      "ޭ": 821,
      "ޮ": 822,
      "ޯ": 823,
      "ް": 824,
      "ߋ": 825,
      "ँ": 826,
      "ं": 827,
      "ः": 828,
      "अ": 829,
      "आ": 830,
      "इ": 831,
      "ई": 832,
      "उ": 833,
      "ऊ": 834,
      "ऋ": 835,
      "ए": 836,
      "ऑ": 837,
      "ओ": 838,
      "औ": 839,
      "क": 840,
      "ख": 841,
      "ग": 842,
      "घ": 843,
      "च": 844,
      "छ": 845,
      "ज": 846,
      "ट": 847,
      "ठ": 848,
      "ड": 849,
      "ढ": 850,
      "ण": 851,
      "त": 852,
      "थ": 853,
      "द": 854,
      "ध": 855,
      "न": 856,
      "प": 857,
      "फ": 858,
      "ब": 859,
      "भ": 860,
      "म": 861,
      "य": 862,
      "र": 863,
      "ल": 864,
      "ळ": 865,
      "व": 866,
      "श": 867,
      "ष": 868,
      "स": 869,
      "ह": 870,
      "़": 871,
      "ा": 872,
      "ि": 873,
      "ी": 874,
      "ु": 875,
      "ू": 876,
      "ृ": 877,
      "ॄ": 878,
      "ॅ": 879,
      "े": 880,
      "ै": 881,
      "ॉ": 882,
      "ो": 883,
      "ौ": 884,
      "्": 885,
      "।": 886,
      "॥": 887,
      "५": 888,
      "६": 889,
      "७": 890,
      "८": 891,
      "९": 892,
      "ঁ": 893,
      "ং": 894,
      "অ": 895,
      "আ": 896,
      "ই": 897,
      "উ": 898,
      "এ": 899,
      "ঐ": 900,
      "ও": 901,
      "ক": 902,
      "খ": 903,
      "গ": 904,
      "ঙ": 905,
      "চ": 906,
      "জ": 907,
      "ট": 908,
      "ঠ": 909,
      "ড": 910,
      "ণ": 911,
      "ত": 912,
      "দ": 913,
      "ধ": 914,
      "ন": 915,
      "প": 916,
      "ফ": 917,
      "ব": 918,
      "ভ": 919,
      "ম": 920,
      "য": 921,
      "র": 922,
      "ল": 923,
      "শ": 924,
      "ষ": 925,
      "স": 926,
      "হ": 927,
      "়": 928,
      "া": 929,
      "ি": 930,
      "ী": 931,
      "ু": 932,
      "ূ": 933,
      "ে": 934,
      "ো": 935,
      "ৌ": 936,
      "্": 937,
      "৳": 938,
      "ਆ": 939,
      "ਉ": 940,
      "ਓ": 941,
      "ਕ": 942,
      "ਖ": 943,
      "ਚ": 944,
      "ਜ": 945,
      "ਦ": 946,
      "ਧ": 947,
      "ਨ": 948,
      "ਪ": 949,
      "ਬ": 950,
      "ਮ": 951,
      "ਰ": 952,
      "ਲ": 953,
      "ਸ਼": 954,
      "ਸ": 955,
      "ਾ": 956,
      "ਿ": 957,
      "ੀ": 958,
      "ੋ": 959,
      "ੰ": 960,
      "ੱ": 961,
      "ગ": 962,
      "જ": 963,
      "ત": 964,
      "ર": 965,
      "ા": 966,
      "ી": 967,
      "ુ": 968,
      "ૐ": 969,
      "அ": 970,
      "ஆ": 971,
      "இ": 972,
      "உ": 973,
      "எ": 974,
      "ஒ": 975,
      "க": 976,
      "ங": 977,
      "ச": 978,
      "ட": 979,
      "ண": 980,
      "த": 981,
      "ந": 982,
      "ன": 983,
      "ப": 984,
      "ம": 985,
      "ய": 986,
      "ர": 987,
      "ற": 988,
      "ல": 989,
      "ள": 990,
      "ழ": 991,
      "வ": 992,
      "ா": 993,
      "ி": 994,
      "ு": 995,
      "ை": 996,
      "ொ": 997,
      "ோ": 998,
      "்": 999,
      "௰": 1000,
      "ం": 1001,
      "అ": 1002,
      "ఆ": 1003,
      "ఎ": 1004,
      "క": 1005,
      "గ": 1006,
      "చ": 1007,
      "జ": 1008,
      "ట": 1009,
      "డ": 1010,
      "త": 1011,
      "ద": 1012,
      "ధ": 1013,
      "న": 1014,
      "ప": 1015,
      "భ": 1016,
      "మ": 1017,
      "య": 1018,
      "ర": 1019,
      "ల": 1020,
      "ళ": 1021,
      "వ": 1022,
      "శ": 1023,
      "స": 1024,
      "ా": 1025,
      "ి": 1026,
      "ు": 1027,
      "ూ": 1028,
      "ె": 1029,
      "ే": 1030,
      "ై": 1031,
      "ో": 1032,
      "్": 1033,
      "ಂ": 1034,
      "ಅ": 1035,
      "ಆ": 1036,
      "ಇ": 1037,
      "ಏ": 1038,
      "ಕ": 1039,
      "ಖ": 1040,
      "ಗ": 1041,
      "ಚ": 1042,
      "ಟ": 1043,
      "ಡ": 1044,
      "ಣ": 1045,
      "ತ": 1046,
      "ದ": 1047,
      "ಧ": 1048,
      "ನ": 1049,
      "ಪ": 1050,
      "ಫ": 1051,
      "ಬ": 1052,
      "ಭ": 1053,
      "ಮ": 1054,
      "ಯ": 1055,
      "ರ": 1056,
      "ಲ": 1057,
      "ಳ": 1058,
      "ವ": 1059,
      "ಶ": 1060,
      "ಷ": 1061,
      "ಸ": 1062,
      "ಹ": 1063,
      "ಾ": 1064,
      "ಿ": 1065,
      "ೀ": 1066,
      "ು": 1067,
      "ೂ": 1068,
      "ೆ": 1069,
      "ೇ": 1070,
      "ೈ": 1071,
      "ೊ": 1072,
      "ೋ": 1073,
      "್": 1074,
      "ം": 1075,
      "അ": 1076,
      "ആ": 1077,
      "ഒ": 1078,
      "ക": 1079,
      "ച": 1080,
      "ട": 1081,
      "ഡ": 1082,
      "ണ": 1083,
      "ധ": 1084,
      "ന": 1085,
      "പ": 1086,
      "ബ": 1087,
      "ഭ": 1088,
      "മ": 1089,
      "യ": 1090,
      "ര": 1091,
      "റ": 1092,
      "ല": 1093,
      "ള": 1094,
      "ഴ": 1095,
      "വ": 1096,
      "ഷ": 1097,
      "സ": 1098,
      "ാ": 1099,
      "ു": 1100,
      "ൂ": 1101,
      "േ": 1102,
      "ൊ": 1103,
      "ോ": 1104,
      "്": 1105,
      "ං": 1106,
      "උ": 1107,
      "ක": 1108,
      "ග": 1109,
      "ජ": 1110,
      "ඨ": 1111,
      "ත": 1112,
      "ද": 1113,
      "න": 1114,
      "ප": 1115,
      "ම": 1116,
      "ය": 1117,
      "ර": 1118,
      "ල": 1119,
      "ව": 1120,
      "ශ": 1121,
      "ස": 1122,
      "හ": 1123,
      "්": 1124,
      "ා": 1125,
      "ැ": 1126,
      "ි": 1127,
      "ී": 1128,
      "ෝ": 1129,
      "ก": 1130,
      "ข": 1131,
      "ฃ": 1132,
      "ค": 1133,
      "ฅ": 1134,
      "ง": 1135,
      "จ": 1136,
      "ฉ": 1137,
      "ช": 1138,
      "ซ": 1139,
      "ฌ": 1140,
      "ญ": 1141,
      "ฎ": 1142,
      "ฏ": 1143,
      "ฐ": 1144,
      "ฑ": 1145,
      "ฒ": 1146,
      "ณ": 1147,
      "ด": 1148,
      "ต": 1149,
      "ถ": 1150,
      "ท": 1151,
      "ธ": 1152,
      "น": 1153,
      "บ": 1154,
      "ป": 1155,
      "ผ": 1156,
      "ฝ": 1157,
      "พ": 1158,
      "ฟ": 1159,
      "ภ": 1160,
      "ม": 1161,
      "ย": 1162,
      "ร": 1163,
      "ฤ": 1164,
      "ล": 1165,
      "ว": 1166,
      "ศ": 1167,
      "ษ": 1168,
      "ส": 1169,
      "ห": 1170,
      "ฬ": 1171,
      "อ": 1172,
      "ฮ": 1173,
      "ฯ": 1174,
      "ะ": 1175,
      "ั": 1176,
      "า": 1177,
      "ำ": 1178,
      "ิ": 1179,
      "ี": 1180,
      "ึ": 1181,
      "ื": 1182,
      "ุ": 1183,
      "ู": 1184,
      "ฺ": 1185,
      "฿": 1186,
      "เ": 1187,
      "แ": 1188,
      "โ": 1189,
      "ใ": 1190,
      "ไ": 1191,
      "ๆ": 1192,
      "็": 1193,
      "่": 1194,
      "้": 1195,
      "๊": 1196,
      "๋": 1197,
      "์": 1198,
      "ํ": 1199,
      "๏": 1200,
      "๐": 1201,
      "๑": 1202,
      "๒": 1203,
      "๓": 1204,
      "๔": 1205,
      "๕": 1206,
      "๖": 1207,
      "๗": 1208,
      "๘": 1209,
      "๙": 1210,
      "๚": 1211,
      "๛": 1212,
      "๴": 1213,
      "๵": 1214,
      "๶": 1215,
      "๷": 1216,
      "๸": 1217,
      "๹": 1218,
      "๺": 1219,
      "๻": 1220,
      "๼": 1221,
      "๽": 1222,
      "๾": 1223,
      "๿": 1224,
      "຀": 1225,
      "ກ": 1226,
      "ຂ": 1227,
      "຃": 1228,
      "ຄ": 1229,
      "຅": 1230,
      "ຆ": 1231,
      "ງ": 1232,
      "ຈ": 1233,
      "ຉ": 1234,
      "ຊ": 1235,
      "຋": 1236,
      "ຌ": 1237,
      "ຍ": 1238,
      "ຎ": 1239,
      "ຏ": 1240,
      "ຐ": 1241,
      "ຑ": 1242,
      "ຒ": 1243,
      "ຓ": 1244,
      "ດ": 1245,
      "ຕ": 1246,
      "ຖ": 1247,
      "ທ": 1248,
      "ຘ": 1249,
      "ນ": 1250,
      "ບ": 1251,
      "ປ": 1252,
      "ຜ": 1253,
      "ຝ": 1254,
      "ພ": 1255,
      "ຟ": 1256,
      "ຠ": 1257,
      "ມ": 1258,
      "ຢ": 1259,
      "ຣ": 1260,
      "຤": 1261,
      "ລ": 1262,
      "຦": 1263,
      "ວ": 1264,
      "ຨ": 1265,
      "ຩ": 1266,
      "ສ": 1267,
      "ຫ": 1268,
      "ຬ": 1269,
      "ອ": 1270,
      "ຮ": 1271,
      "ຯ": 1272,
      "ະ": 1273,
      "ັ": 1274,
      "າ": 1275,
      "ຳ": 1276,
      "ິ": 1277,
      "ີ": 1278,
      "ຶ": 1279,
      "ື": 1280,
      "ຸ": 1281,
      "ູ": 1282,
      "຺": 1283,
      "ົ": 1284,
      "ຼ": 1285,
      "ຽ": 1286,
      "຾": 1287,
      "຿": 1288,
      "ເ": 1289,
      "ແ": 1290,
      "ໂ": 1291,
      "ໃ": 1292,
      "ໄ": 1293,
      "໅": 1294,
      "ໆ": 1295,
      "໇": 1296,
      "່": 1297,
      "້": 1298,
      "໊": 1299,
      "໋": 1300,
      "໌": 1301,
      "ໍ": 1302,
      "໎": 1303,
      "໏": 1304,
      "໐": 1305,
      "໑": 1306,
      "໒": 1307,
      "໓": 1308,
      "໔": 1309,
      "໕": 1310,
      "໖": 1311,
      "໗": 1312,
      "໘": 1313,
      "໙": 1314,
      "໚": 1315,
      "໛": 1316,
      "ໜ": 1317,
      "ໝ": 1318,
      "ໞ": 1319,
      "ໟ": 1320,
      "໠": 1321,
      "໡": 1322,
      "໢": 1323,
      "໣": 1324,
      "໤": 1325,
      "໥": 1326,
      "໦": 1327,
      "໧": 1328,
      "໨": 1329,
      "໩": 1330,
      "໪": 1331,
      "໫": 1332,
      "໬": 1333,
      "໭": 1334,
      "໮": 1335,
      "໯": 1336,
      "໰": 1337,
      "໱": 1338,
      "໲": 1339,
      "໳": 1340,
      "໴": 1341,
      "໵": 1342,
      "໶": 1343,
      "໷": 1344,
      "໸": 1345,
      "໹": 1346,
      "໺": 1347,
      "໻": 1348,
      "໼": 1349,
      "໽": 1350,
      "໾": 1351,
      "໿": 1352,
      "་": 1353,
      "ག": 1354,
      "བ": 1355,
      "འ": 1356,
      "ུ": 1357,
      "ྲ": 1358,
      "က": 1359,
      "င": 1360,
      "စ": 1361,
      "ည": 1362,
      "တ": 1363,
      "ထ": 1364,
      "ဒ": 1365,
      "န": 1366,
      "ပ": 1367,
      "ဖ": 1368,
      "ဗ": 1369,
      "မ": 1370,
      "ယ": 1371,
      "ရ": 1372,
      "ဝ": 1373,
      "သ": 1374,
      "ဟ": 1375,
      "ါ": 1376,
      "ာ": 1377,
      "ိ": 1378,
      "ီ": 1379,
      "ု": 1380,
      "ူ": 1381,
      "ေ": 1382,
      "ဲ": 1383,
      "ံ": 1384,
      "့": 1385,
      "း": 1386,
      "္": 1387,
      "်": 1388,
      "ြ": 1389,
      "၈": 1390,
      "ა": 1391,
      "ბ": 1392,
      "გ": 1393,
      "დ": 1394,
      "ე": 1395,
      "ვ": 1396,
      "ზ": 1397,
      "თ": 1398,
      "ი": 1399,
      "კ": 1400,
      "ლ": 1401,
      "მ": 1402,
      "ნ": 1403,
      "ო": 1404,
      "პ": 1405,
      "რ": 1406,
      "ს": 1407,
      "ტ": 1408,
      "უ": 1409,
      "ქ": 1410,
      "ღ": 1411,
      "ყ": 1412,
      "ሁ": 1413,
      "ሃ": 1414,
      "ህ": 1415,
      "ሆ": 1416,
      "ለ": 1417,
      "ሉ": 1418,
      "ሊ": 1419,
      "ላ": 1420,
      "ሌ": 1421,
      "ል": 1422,
      "ሎ": 1423,
      "ሐ": 1424,
      "ሑ": 1425,
      "መ": 1426,
      "ሙ": 1427,
      "ማ": 1428,
      "ሜ": 1429,
      "ም": 1430,
      "ሥ": 1431,
      "ረ": 1432,
      "ሩ": 1433,
      "ሪ": 1434,
      "ራ": 1435,
      "ር": 1436,
      "ሰ": 1437,
      "ሲ": 1438,
      "ሳ": 1439,
      "ስ": 1440,
      "ሻ": 1441,
      "ቃ": 1442,
      "ቅ": 1443,
      "በ": 1444,
      "ቡ": 1445,
      "ባ": 1446,
      "ብ": 1447,
      "ቪ": 1448,
      "ተ": 1449,
      "ታ": 1450,
      "ቴ": 1451,
      "ት": 1452,
      "ች": 1453,
      "ቾ": 1454,
      "ነ": 1455,
      "ኒ": 1456,
      "ና": 1457,
      "ኔ": 1458,
      "ን": 1459,
      "ኛ": 1460,
      "ኝ": 1461,
      "ኞ": 1462,
      "አ": 1463,
      "ኤ": 1464,
      "እ": 1465,
      "ኦ": 1466,
      "ኪ": 1467,
      "ካ": 1468,
      "ክ": 1469,
      "ኮ": 1470,
      "ዊ": 1471,
      "ዋ": 1472,
      "ዌ": 1473,
      "ው": 1474,
      "ዎ": 1475,
      "ዓ": 1476,
      "ዘ": 1477,
      "ዙ": 1478,
      "ዝ": 1479,
      "ዥ": 1480,
      "የ": 1481,
      "ዩ": 1482,
      "ያ": 1483,
      "ይ": 1484,
      "ዳ": 1485,
      "ድ": 1486,
      "ጀ": 1487,
      "ጃ": 1488,
      "ገ": 1489,
      "ጋ": 1490,
      "ግ": 1491,
      "ጣ": 1492,
      "ጥ": 1493,
      "ጽ": 1494,
      "ፀ": 1495,
      "ፈ": 1496,
      "ፍ": 1497,
      "ፒ": 1498,
      "ፖ": 1499,
      "Ꭰ": 1500,
      "Ꭱ": 1501,
      "Ꭲ": 1502,
      "Ꭳ": 1503,
      "Ꭴ": 1504,
      "Ꭶ": 1505,
      "Ꭷ": 1506,
      "Ꭹ": 1507,
      "Ꭺ": 1508,
      "Ꭼ": 1509,
      "Ꭽ": 1510,
      "Ꮃ": 1511,
      "Ꮅ": 1512,
      "Ꮆ": 1513,
      "Ꮈ": 1514,
      "Ꮉ": 1515,
      "Ꮊ": 1516,
      "Ꮎ": 1517,
      "Ꮓ": 1518,
      "Ꮖ": 1519,
      "Ꮘ": 1520,
      "Ꮜ": 1521,
      "Ꮝ": 1522,
      "Ꮞ": 1523,
      "Ꮟ": 1524,
      "Ꮣ": 1525,
      "Ꮥ": 1526,
      "Ꮧ": 1527,
      "Ꮫ": 1528,
      "Ꮯ": 1529,
      "Ꮱ": 1530,
      "Ꮲ": 1531,
      "Ꮳ": 1532,
      "Ꮵ": 1533,
      "Ꮹ": 1534,
      "Ꮺ": 1535,
      "Ꮻ": 1536,
      "ᐃ": 1537,
      "ᐅ": 1538,
      "ᐆ": 1539,
      "ᐈ": 1540,
      "ᐊ": 1541,
      "ᐋ": 1542,
      "ᐱ": 1543,
      "ᐳ": 1544,
      "ᐸ": 1545,
      "ᑉ": 1546,
      "ᑎ": 1547,
      "ᑐ": 1548,
      "ᑕ": 1549,
      "ᑦ": 1550,
      "ᑭ": 1551,
      "ᑲ": 1552,
      "ᒃ": 1553,
      "ᒥ": 1554,
      "ᒫ": 1555,
      "ᓂ": 1556,
      "ᓄ": 1557,
      "ᓇ": 1558,
      "ᓐ": 1559,
      "ᓕ": 1560,
      "ᓗ": 1561,
      "ᓚ": 1562,
      "ᓛ": 1563,
      "ᓪ": 1564,
      "ᓯ": 1565,
      "ᓰ": 1566,
      "ᓱ": 1567,
      "ᓴ": 1568,
      "ᔅ": 1569,
      "ᔪ": 1570,
      "ᔭ": 1571,
      "ᕆ": 1572,
      "ᕈ": 1573,
      "ᕋ": 1574,
      "ᕌ": 1575,
      "ᕐ": 1576,
      "ᕗ": 1577,
      "ᕙ": 1578,
      "ᕿ": 1579,
      "ᖃ": 1580,
      "ᖅ": 1581,
      "ក": 1582,
      "ខ": 1583,
      "គ": 1584,
      "ឃ": 1585,
      "ង": 1586,
      "ច": 1587,
      "ឆ": 1588,
      "ជ": 1589,
      "ឈ": 1590,
      "ញ": 1591,
      "ដ": 1592,
      "ឋ": 1593,
      "ឌ": 1594,
      "ឍ": 1595,
      "ណ": 1596,
      "ត": 1597,
      "ថ": 1598,
      "ទ": 1599,
      "ធ": 1600,
      "ន": 1601,
      "ប": 1602,
      "ផ": 1603,
      "ព": 1604,
      "ភ": 1605,
      "ម": 1606,
      "យ": 1607,
      "រ": 1608,
      "ល": 1609,
      "វ": 1610,
      "ស": 1611,
      "ហ": 1612,
      "ឡ": 1613,
      "អ": 1614,
      "ឥ": 1615,
      "ឧ": 1616,
      "ា": 1617,
      "ិ": 1618,
      "ី": 1619,
      "ឹ": 1620,
      "ឺ": 1621,
      "ុ": 1622,
      "ូ": 1623,
      "ួ": 1624,
      "ើ": 1625,
      "ៀ": 1626,
      "េ": 1627,
      "ែ": 1628,
      "ៃ": 1629,
      "ោ": 1630,
      "ៅ": 1631,
      "ំ": 1632,
      "ះ": 1633,
      "ៈ": 1634,
      "៉": 1635,
      "៊": 1636,
      "់": 1637,
      "៌": 1638,
      "៍": 1639,
      "័": 1640,
      "្": 1641,
      "៖": 1642,
      "១": 1643,
      "២": 1644,
      "៣": 1645,
      "៨": 1646,
      "ᦡ": 1647,
      "ᦱ": 1648,
      "ᧁ": 1649,
      "ᨾ": 1650,
      "ᩓ": 1651,
      "᩠": 1652,
      "᪫": 1653,
      "ᴀ": 1654,
      "ᴅ": 1655,
      "ᴇ": 1656,
      "ᴏ": 1657,
      "ᴛ": 1658,
      "ᴜ": 1659,
      "ᴠ": 1660,
      "ᴡ": 1661,
      "ᵒ": 1662,
      "᷄": 1663,
      "᷅": 1664,
      "᷆": 1665,
      "ḅ": 1666,
      "ḍ": 1667,
      "Ḑ": 1668,
      "ḥ": 1669,
      "Ḷ": 1670,
      "ḷ": 1671,
      "ḿ": 1672,
      "Ṁ": 1673,
      "ṁ": 1674,
      "Ṃ": 1675,
      "ṃ": 1676,
      "Ṅ": 1677,
      "ṅ": 1678,
      "Ṇ": 1679,
      "ṇ": 1680,
      "Ṣ": 1681,
      "ṣ": 1682,
      "Ṭ": 1683,
      "ṭ": 1684,
      "ṳ": 1685,
      "ṵ": 1686,
      "ẏ": 1687,
      "Ạ": 1688,
      "ạ": 1689,
      "Ả": 1690,
      "ả": 1691,
      "Ấ": 1692,
      "ấ": 1693,
      "Ầ": 1694,
      "ầ": 1695,
      "Ẩ": 1696,
      "ẩ": 1697,
      "Ẫ": 1698,
      "ẫ": 1699,
      "Ậ": 1700,
      "ậ": 1701,
      "Ắ": 1702,
      "ắ": 1703,
      "Ằ": 1704,
      "ằ": 1705,
      "Ẳ": 1706,
      "ẳ": 1707,
      "Ẵ": 1708,
      "ẵ": 1709,
      "Ặ": 1710,
      "ặ": 1711,
      "Ẹ": 1712,
      "ẹ": 1713,
      "Ẻ": 1714,
      "ẻ": 1715,
      "Ẽ": 1716,
      "ẽ": 1717,
      "Ế": 1718,
      "ế": 1719,
      "Ề": 1720,
      "ề": 1721,
      "Ể": 1722,
      "ể": 1723,
      "Ễ": 1724,
      "ễ": 1725,
      "Ệ": 1726,
      "ệ": 1727,
      "Ỉ": 1728,
      "ỉ": 1729,
      "Ị": 1730,
      "ị": 1731,
      "Ọ": 1732,
      "ọ": 1733,
      "Ỏ": 1734,
      "ỏ": 1735,
      "Ố": 1736,
      "ố": 1737,
      "Ồ": 1738,
      "ồ": 1739,
      "Ổ": 1740,
      "ổ": 1741,
      "Ỗ": 1742,
      "ỗ": 1743,
      "Ộ": 1744,
      "ộ": 1745,
      "Ớ": 1746,
      "ớ": 1747,
      "Ờ": 1748,
      "ờ": 1749,
      "Ở": 1750,
      "ở": 1751,
      "Ỡ": 1752,
      "ỡ": 1753,
      "Ợ": 1754,
      "ợ": 1755,
      "Ụ": 1756,
      "ụ": 1757,
      "Ủ": 1758,
      "ủ": 1759,
      "Ứ": 1760,
      "ứ": 1761,
      "Ừ": 1762,
      "ừ": 1763,
      "Ử": 1764,
      "ử": 1765,
      "Ữ": 1766,
      "ữ": 1767,
      "Ự": 1768,
      "ự": 1769,
      "Ỳ": 1770,
      "ỳ": 1771,
      "Ỵ": 1772,
      "ỵ": 1773,
      "Ỷ": 1774,
      "ỷ": 1775,
      "Ỹ": 1776,
      "ỹ": 1777,
      "ἀ": 1778,
      "ἐ": 1779,
      "ἱ": 1780,
      "ἴ": 1781,
      "ὀ": 1782,
      "Ὅ": 1783,
      "ὶ": 1784,
      "ᾐ": 1785,
      "ᾶ": 1786,
      "Ᾱ": 1787,
      "Ῑ": 1788,
      "ῡ": 1789,
      "​": 1790,
      "‌": 1791,
      "‍": 1792,
      "‎": 1793,
      "‏": 1794,
      "‐": 1795,
      "‑": 1796,
      "‒": 1797,
      "–": 1798,
      "—": 1799,
      "―": 1800,
      "‘": 1801,
      "’": 1802,
      "‛": 1803,
      "“": 1804,
      "”": 1805,
      "„": 1806,
      "†": 1807,
      "‡": 1808,
      "•": 1809,
      "…": 1810,
      "‧": 1811,
      "‪": 1812,
      "‫": 1813,
      "‬": 1814,
      "‭": 1815,
      "‰": 1816,
      "′": 1817,
      "″": 1818,
      "‹": 1819,
      "›": 1820,
      "※": 1821,
      "‼": 1822,
      "‿": 1823,
      "⁃": 1824,
      "⁄": 1825,
      "⁝": 1826,
      "⁠": 1827,
      "⁰": 1828,
      "⁶": 1829,
      "ⁿ": 1830,
      "₀": 1831,
      "₂": 1832,
      "ₑ": 1833,
      "₣": 1834,
      "₤": 1835,
      "₩": 1836,
      "₪": 1837,
      "₫": 1838,
      "€": 1839,
      "₭": 1840,
      "₱": 1841,
      "₴": 1842,
      "₸": 1843,
      "₹": 1844,
      "₼": 1845,
      "₾": 1846,
      "⃣": 1847,
      "℃": 1848,
      "℅": 1849,
      "ℇ": 1850,
      "℉": 1851,
      "ℋ": 1852,
      "ℌ": 1853,
      "ℎ": 1854,
      "ℐ": 1855,
      "ℒ": 1856,
      "ℓ": 1857,
      "№": 1858,
      "ℙ": 1859,
      "ℚ": 1860,
      "ℛ": 1861,
      "ℝ": 1862,
      "℠": 1863,
      "™": 1864,
      "ℤ": 1865,
      "Ω": 1866,
      "ℨ": 1867,
      "ℬ": 1868,
      "ℭ": 1869,
      "ℯ": 1870,
      "ℰ": 1871,
      "ℱ": 1872,
      "Ⅎ": 1873,
      "ℳ": 1874,
      "ℴ": 1875,
      "ℵ": 1876,
      "ℶ": 1877,
      "ℷ": 1878,
      "ℸ": 1879,
      "ℼ": 1880,
      "ℽ": 1881,
      "ℾ": 1882,
      "ℿ": 1883,
      "ⅅ": 1884,
      "ⅆ": 1885,
      "ⅇ": 1886,
      "ⅈ": 1887,
      "ⅉ": 1888,
      "ⅎ": 1889,
      "⅐": 1890,
      "⅑": 1891,
      "⅒": 1892,
      "⅓": 1893,
      "⅔": 1894,
      "⅕": 1895,
      "⅖": 1896,
      "⅙": 1897,
      "⅛": 1898,
      "⅝": 1899,
      "Ⅰ": 1900,
      "Ⅱ": 1901,
      "Ⅲ": 1902,
      "Ⅳ": 1903,
      "Ⅴ": 1904,
      "Ⅵ": 1905,
      "Ⅶ": 1906,
      "Ⅷ": 1907,
      "Ⅸ": 1908,
      "Ⅹ": 1909,
      "Ⅻ": 1910,
      "Ⅼ": 1911,
      "Ⅽ": 1912,
      "Ⅾ": 1913,
      "Ⅿ": 1914,
      "ⅱ": 1915,
      "ⅳ": 1916,
      "ⅴ": 1917,
      "ⅵ": 1918,
      "ⅶ": 1919,
      "ⅷ": 1920,
      "ⅸ": 1921,
      "ⅹ": 1922,
      "ⅼ": 1923,
      "ⅽ": 1924,
      "ⅿ": 1925,
      "←": 1926,
      "↑": 1927,
      "→": 1928,
      "↓": 1929,
      "↔": 1930,
      "↘": 1931,
      "↙": 1932,
      "↩": 1933,
      "⇒": 1934,
      "⇓": 1935,
      "⇔": 1936,
      "∎": 1937,
      "−": 1938,
      "∗": 1939,
      "∘": 1940,
      "√": 1941,
      "∞": 1942,
      "∣": 1943,
      "∥": 1944,
      "∮": 1945,
      "∴": 1946,
      "≈": 1947,
      "≠": 1948,
      "≣": 1949,
      "≤": 1950,
      "≥": 1951,
      "≦": 1952,
      "≧": 1953,
      "⊡": 1954,
      "⊥": 1955,
      "⋅": 1956,
      "⋆": 1957,
      "⋯": 1958,
      "⌘": 1959,
      "⌚": 1960,
      "⌛": 1961,
      "⏩": 1962,
      "⏰": 1963,
      "⏱": 1964,
      "①": 1965,
      "②": 1966,
      "③": 1967,
      "④": 1968,
      "⑤": 1969,
      "⑥": 1970,
      "⑦": 1971,
      "⑧": 1972,
      "⑪": 1973,
      "⑫": 1974,
      "Ⓑ": 1975,
      "Ⓟ": 1976,
      "Ⓤ": 1977,
      "ⓐ": 1978,
      "ⓒ": 1979,
      "ⓔ": 1980,
      "ⓖ": 1981,
      "ⓘ": 1982,
      "ⓛ": 1983,
      "ⓞ": 1984,
      "ⓢ": 1985,
      "ⓤ": 1986,
      "ⓥ": 1987,
      "⓹": 1988,
      "⓿": 1989,
      "─": 1990,
      "━": 1991,
      "│": 1992,
      "┏": 1993,
      "┓": 1994,
      "┗": 1995,
      "├": 1996,
      "┣": 1997,
      "┤": 1998,
      "┱": 1999,
      "┴": 2000,
      "┼": 2001,
      "═": 2002,
      "║": 2003,
      "╔": 2004,
      "╖": 2005,
      "╗": 2006,
      "╘": 2007,
      "╙": 2008,
      "╚": 2009,
      "╟": 2010,
      "╠": 2011,
      "╣": 2012,
      "╤": 2013,
      "╥": 2014,
      "╬": 2015,
      "▀": 2016,
      "▂": 2017,
      "▃": 2018,
      "▄": 2019,
      "▅": 2020,
      "▆": 2021,
      "█": 2022,
      "░": 2023,
      "■": 2024,
      "□": 2025,
      "▪": 2026,
      "▫": 2027,
      "▲": 2028,
      "△": 2029,
      "▶": 2030,
      "▷": 2031,
      "▸": 2032,
      "►": 2033,
      "▻": 2034,
      "▼": 2035,
      "▽": 2036,
      "◀": 2037,
      "◄": 2038,
      "◆": 2039,
      "◇": 2040,
      "◉": 2041,
      "◊": 2042,
      "○": 2043,
      "◌": 2044,
      "◎": 2045,
      "●": 2046,
      "◔": 2047,
      "◕": 2048,
      "◡": 2049,
      "◤": 2050,
      "◥": 2051,
      "◩": 2052,
      "◪": 2053,
      "◽": 2054,
      "☀": 2055,
      "☁": 2056,
      "☂": 2057,
      "☄": 2058,
      "★": 2059,
      "☆": 2060,
      "☊": 2061,
      "☎": 2062,
      "☐": 2063,
      "☑": 2064,
      "☕": 2065,
      "☘": 2066,
      "☜": 2067,
      "☝": 2068,
      "☞": 2069,
      "☠": 2070,
      "☡": 2071,
      "☭": 2072,
      "☯": 2073,
      "☸": 2074,
      "☹": 2075,
      "☺": 2076,
      "☻": 2077,
      "☼": 2078,
      "♀": 2079,
      "♂": 2080,
      "♄": 2081,
      "♏": 2082,
      "♚": 2083,
      "♛": 2084,
      "♠": 2085,
      "♡": 2086,
      "♣": 2087,
      "♥": 2088,
      "♦": 2089,
      "♪": 2090,
      "♫": 2091,
      "♬": 2092,
      "♰": 2093,
      "♴": 2094,
      "♾": 2095,
      "⚀": 2096,
      "⚁": 2097,
      "⚂": 2098,
      "⚃": 2099,
      "⚄": 2100,
      "⚕": 2101,
      "⚘": 2102,
      "⚙": 2103,
      "⚜": 2104,
      "⚠": 2105,
      "⚡": 2106,
      "⚽": 2107,
      "⛑": 2108,
      "⛔": 2109,
      "⛤": 2110,
      "⛰": 2111,
      "✅": 2112,
      "✈": 2113,
      "✊": 2114,
      "✋": 2115,
      "✌": 2116,
      "✍": 2117,
      "✎": 2118,
      "✓": 2119,
      "✔": 2120,
      "✘": 2121,
      "✚": 2122,
      "✛": 2123,
      "✦": 2124,
      "✨": 2125,
      "✩": 2126,
      "✪": 2127,
      "✫": 2128,
      "✬": 2129,
      "✭": 2130,
      "✮": 2131,
      "✯": 2132,
      "✰": 2133,
      "✲": 2134,
      "✳": 2135,
      "✿": 2136,
      "❀": 2137,
      "❄": 2138,
      "❇": 2139,
      "❌": 2140,
      "❓": 2141,
      "❖": 2142,
      "❗": 2143,
      "❘": 2144,
      "❝": 2145,
      "❞": 2146,
      "❣": 2147,
      "❤": 2148,
      "❥": 2149,
      "❯": 2150,
      "❶": 2151,
      "❷": 2152,
      "❹": 2153,
      "❺": 2154,
      "❼": 2155,
      "➁": 2156,
      "➃": 2157,
      "➄": 2158,
      "➊": 2159,
      "➋": 2160,
      "➖": 2161,
      "➜": 2162,
      "➝": 2163,
      "➠": 2164,
      "➡": 2165,
      "➢": 2166,
      "➥": 2167,
      "➧": 2168,
      "➪": 2169,
      "➲": 2170,
      "➴": 2171,
      "➶": 2172,
      "⠀": 2173,
      "⤓": 2174,
      "⦁": 2175,
      "⦿": 2176,
      "⨯": 2177,
      "⬆": 2178,
      "⬇": 2179,
      "⭐": 2180,
      "、": 2181,
      "。": 2182,
      "々": 2183,
      "《": 2184,
      "》": 2185,
      "「": 2186,
      "」": 2187,
      "『": 2188,
      "』": 2189,
      "【": 2190,
      "】": 2191,
      "〔": 2192,
      "〕": 2193,
      "〖": 2194,
      "〗": 2195,
      "〜": 2196,
      "〝": 2197,
      "〞": 2198,
      "〰": 2199,
      "ぁ": 2200,
      "あ": 2201,
      "ぃ": 2202,
      "い": 2203,
      "う": 2204,
      "え": 2205,
      "お": 2206,
      "か": 2207,
      "が": 2208,
      "き": 2209,
      "ぎ": 2210,
      "く": 2211,
      "ぐ": 2212,
      "け": 2213,
      "げ": 2214,
      "こ": 2215,
      "ご": 2216,
      "さ": 2217,
      "ざ": 2218,
      "し": 2219,
      "じ": 2220,
      "す": 2221,
      "ず": 2222,
      "せ": 2223,
      "ぜ": 2224,
      "そ": 2225,
      "ぞ": 2226,
      "た": 2227,
      "だ": 2228,
      "ち": 2229,
      "っ": 2230,
      "つ": 2231,
      "づ": 2232,
      "て": 2233,
      "で": 2234,
      "と": 2235,
      "ど": 2236,
      "な": 2237,
      "に": 2238,
      "ぬ": 2239,
      "ね": 2240,
      "の": 2241,
      "は": 2242,
      "ば": 2243,
      "ぱ": 2244,
      "ひ": 2245,
      "び": 2246,
      "ぴ": 2247,
      "ふ": 2248,
      "ぶ": 2249,
      "ぷ": 2250,
      "へ": 2251,
      "べ": 2252,
      "ぺ": 2253,
      "ほ": 2254,
      "ぼ": 2255,
      "ぽ": 2256,
      "ま": 2257,
      "み": 2258,
      "む": 2259,
      "め": 2260,
      "も": 2261,
      "ゃ": 2262,
      "や": 2263,
      "ゅ": 2264,
      "ゆ": 2265,
      "ょ": 2266,
      "よ": 2267,
      "ら": 2268,
      "り": 2269,
      "る": 2270,
      "れ": 2271,
      "ろ": 2272,
      "わ": 2273,
      "を": 2274,
      "ん": 2275,
      "ゞ": 2276,
      "ァ": 2277,
      "ア": 2278,
      "ィ": 2279,
      "イ": 2280,
      "ウ": 2281,
      "ェ": 2282,
      "エ": 2283,
      "ォ": 2284,
      "オ": 2285,
      "カ": 2286,
      "ガ": 2287,
      "キ": 2288,
      "ギ": 2289,
      "ク": 2290,
      "グ": 2291,
      "ケ": 2292,
      "コ": 2293,
      "ゴ": 2294,
      "サ": 2295,
      "ザ": 2296,
      "シ": 2297,
      "ジ": 2298,
      "ス": 2299,
      "ズ": 2300,
      "セ": 2301,
      "ゼ": 2302,
      "ソ": 2303,
      "ゾ": 2304,
      "タ": 2305,
      "ダ": 2306,
      "チ": 2307,
      "ッ": 2308,
      "ツ": 2309,
      "テ": 2310,
      "デ": 2311,
      "ト": 2312,
      "ド": 2313,
      "ナ": 2314,
      "ニ": 2315,
      "ヌ": 2316,
      "ネ": 2317,
      "ノ": 2318,
      "ハ": 2319,
      "バ": 2320,
      "パ": 2321,
      "ヒ": 2322,
      "ビ": 2323,
      "ピ": 2324,
      "フ": 2325,
      "ブ": 2326,
      "プ": 2327,
      "ヘ": 2328,
      "ベ": 2329,
      "ペ": 2330,
      "ボ": 2331,
      "ポ": 2332,
      "マ": 2333,
      "ミ": 2334,
      "ム": 2335,
      "メ": 2336,
      "モ": 2337,
      "ャ": 2338,
      "ヤ": 2339,
      "ュ": 2340,
      "ユ": 2341,
      "ョ": 2342,
      "ラ": 2343,
      "リ": 2344,
      "ル": 2345,
      "レ": 2346,
      "ロ": 2347,
      "ワ": 2348,
      "ン": 2349,
      "ヴ": 2350,
      "・": 2351,
      "ー": 2352,
      "ㄩ": 2353,
      "ㄱ": 2354,
      "ㄴ": 2355,
      "ㅂ": 2356,
      "ㅅ": 2357,
      "ㅋ": 2358,
      "ㅌ": 2359,
      "ㅍ": 2360,
      "ㅎ": 2361,
      "ㆍ": 2362,
      "㊗": 2363,
      "㊚": 2364,
      "㊛": 2365,
      "㋡": 2366,
      "㌿": 2367,
      "㎜": 2368,
      "㎡": 2369,
      "㳇": 2370,
      "㳙": 2371,
      "㸿": 2372,
      "㹀": 2373,
      "㹠": 2374,
      "㺨": 2375,
      "㾁": 2376,
      "㾂": 2377,
      "㾉": 2378,
      "㾊": 2379,
      "㾒": 2380,
      "㾗": 2381,
      "㾙": 2382,
      "㾞": 2383,
      "㾥": 2384,
      "㾦": 2385,
      "㾩": 2386,
      "㾫": 2387,
      "㾳": 2388,
      "㾸": 2389,
      "㾾": 2390,
      "㿀": 2391,
      "㿍": 2392,
      "㿏": 2393,
      "㿚": 2394,
      "㿧": 2395,
      "㿰": 2396,
      "㿶": 2397,
      "㿽": 2398,
      "一": 2399,
      "丁": 2400,
      "七": 2401,
      "万": 2402,
      "三": 2403,
      "上": 2404,
      "下": 2405,
      "不": 2406,
      "与": 2407,
      "专": 2408,
      "且": 2409,
      "世": 2410,
      "丘": 2411,
      "丙": 2412,
      "业": 2413,
      "东": 2414,
      "丝": 2415,
      "两": 2416,
      "並": 2417,
      "丨": 2418,
      "个": 2419,
      "中": 2420,
      "丰": 2421,
      "串": 2422,
      "临": 2423,
      "丸": 2424,
      "丹": 2425,
      "为": 2426,
      "主": 2427,
      "丼": 2428,
      "举": 2429,
      "久": 2430,
      "么": 2431,
      "义": 2432,
      "之": 2433,
      "乘": 2434,
      "九": 2435,
      "也": 2436,
      "习": 2437,
      "乡": 2438,
      "书": 2439,
      "买": 2440,
      "乱": 2441,
      "乳": 2442,
      "乾": 2443,
      "亀": 2444,
      "了": 2445,
      "予": 2446,
      "争": 2447,
      "事": 2448,
      "二": 2449,
      "于": 2450,
      "云": 2451,
      "五": 2452,
      "井": 2453,
      "亚": 2454,
      "亞": 2455,
      "亡": 2456,
      "交": 2457,
      "产": 2458,
      "享": 2459,
      "京": 2460,
      "亲": 2461,
      "人": 2462,
      "什": 2463,
      "仇": 2464,
      "今": 2465,
      "介": 2466,
      "仏": 2467,
      "仔": 2468,
      "仕": 2469,
      "他": 2470,
      "仗": 2471,
      "付": 2472,
      "仙": 2473,
      "代": 2474,
      "令": 2475,
      "以": 2476,
      "仨": 2477,
      "仪": 2478,
      "们": 2479,
      "仮": 2480,
      "仰": 2481,
      "仲": 2482,
      "仵": 2483,
      "件": 2484,
      "价": 2485,
      "任": 2486,
      "仿": 2487,
      "企": 2488,
      "伊": 2489,
      "伐": 2490,
      "休": 2491,
      "优": 2492,
      "会": 2493,
      "伝": 2494,
      "伞": 2495,
      "伟": 2496,
      "传": 2497,
      "伦": 2498,
      "伯": 2499,
      "伸": 2500,
      "但": 2501,
      "位": 2502,
      "低": 2503,
      "住": 2504,
      "佐": 2505,
      "体": 2506,
      "何": 2507,
      "余": 2508,
      "佛": 2509,
      "作": 2510,
      "你": 2511,
      "佩": 2512,
      "佳": 2513,
      "使": 2514,
      "來": 2515,
      "例": 2516,
      "供": 2517,
      "依": 2518,
      "価": 2519,
      "侦": 2520,
      "侮": 2521,
      "侯": 2522,
      "侵": 2523,
      "便": 2524,
      "係": 2525,
      "促": 2526,
      "俄": 2527,
      "保": 2528,
      "信": 2529,
      "修": 2530,
      "俺": 2531,
      "倅": 2532,
      "倉": 2533,
      "們": 2534,
      "倒": 2535,
      "候": 2536,
      "借": 2537,
      "値": 2538,
      "倫": 2539,
      "债": 2540,
      "值": 2541,
      "倾": 2542,
      "假": 2543,
      "健": 2544,
      "側": 2545,
      "偵": 2546,
      "偶": 2547,
      "偽": 2548,
      "傅": 2549,
      "傘": 2550,
      "備": 2551,
      "储": 2552,
      "催": 2553,
      "傳": 2554,
      "債": 2555,
      "傷": 2556,
      "傾": 2557,
      "働": 2558,
      "僕": 2559,
      "償": 2560,
      "優": 2561,
      "儿": 2562,
      "元": 2563,
      "充": 2564,
      "兆": 2565,
      "先": 2566,
      "光": 2567,
      "克": 2568,
      "免": 2569,
      "児": 2570,
      "兔": 2571,
      "党": 2572,
      "入": 2573,
      "全": 2574,
      "八": 2575,
      "公": 2576,
      "六": 2577,
      "兰": 2578,
      "共": 2579,
      "关": 2580,
      "兴": 2581,
      "兵": 2582,
      "其": 2583,
      "具": 2584,
      "典": 2585,
      "兼": 2586,
      "内": 2587,
      "円": 2588,
      "再": 2589,
      "写": 2590,
      "军": 2591,
      "农": 2592,
      "冠": 2593,
      "冬": 2594,
      "冰": 2595,
      "冱": 2596,
      "决": 2597,
      "况": 2598,
      "冷": 2599,
      "净": 2600,
      "凈": 2601,
      "凍": 2602,
      "几": 2603,
      "凡": 2604,
      "凳": 2605,
      "凹": 2606,
      "出": 2607,
      "刀": 2608,
      "分": 2609,
      "切": 2610,
      "刈": 2611,
      "刊": 2612,
      "刑": 2613,
      "划": 2614,
      "列": 2615,
      "刘": 2616,
      "初": 2617,
      "判": 2618,
      "別": 2619,
      "刨": 2620,
      "利": 2621,
      "到": 2622,
      "制": 2623,
      "刷": 2624,
      "券": 2625,
      "刺": 2626,
      "刻": 2627,
      "剂": 2628,
      "剃": 2629,
      "則": 2630,
      "削": 2631,
      "前": 2632,
      "剣": 2633,
      "剧": 2634,
      "剩": 2635,
      "剪": 2636,
      "割": 2637,
      "創": 2638,
      "劇": 2639,
      "劍": 2640,
      "力": 2641,
      "办": 2642,
      "功": 2643,
      "加": 2644,
      "务": 2645,
      "动": 2646,
      "助": 2647,
      "努": 2648,
      "励": 2649,
      "劳": 2650,
      "労": 2651,
      "効": 2652,
      "勃": 2653,
      "勇": 2654,
      "動": 2655,
      "務": 2656,
      "勝": 2657,
      "募": 2658,
      "勢": 2659,
      "包": 2660,
      "匈": 2661,
      "化": 2662,
      "北": 2663,
      "匙": 2664,
      "匯": 2665,
      "匹": 2666,
      "区": 2667,
      "医": 2668,
      "區": 2669,
      "十": 2670,
      "千": 2671,
      "升": 2672,
      "午": 2673,
      "半": 2674,
      "卍": 2675,
      "华": 2676,
      "卐": 2677,
      "卓": 2678,
      "協": 2679,
      "单": 2680,
      "南": 2681,
      "単": 2682,
      "卙": 2683,
      "博": 2684,
      "卜": 2685,
      "占": 2686,
      "卢": 2687,
      "卫": 2688,
      "印": 2689,
      "危": 2690,
      "即": 2691,
      "却": 2692,
      "卵": 2693,
      "卸": 2694,
      "卿": 2695,
      "厂": 2696,
      "压": 2697,
      "厚": 2698,
      "原": 2699,
      "厳": 2700,
      "去": 2701,
      "县": 2702,
      "参": 2703,
      "又": 2704,
      "叉": 2705,
      "及": 2706,
      "友": 2707,
      "双": 2708,
      "反": 2709,
      "収": 2710,
      "发": 2711,
      "取": 2712,
      "受": 2713,
      "变": 2714,
      "口": 2715,
      "古": 2716,
      "句": 2717,
      "只": 2718,
      "叫": 2719,
      "召": 2720,
      "可": 2721,
      "台": 2722,
      "叱": 2723,
      "史": 2724,
      "叶": 2725,
      "号": 2726,
      "司": 2727,
      "各": 2728,
      "合": 2729,
      "吉": 2730,
      "同": 2731,
      "名": 2732,
      "后": 2733,
      "向": 2734,
      "吗": 2735,
      "君": 2736,
      "吞": 2737,
      "吧": 2738,
      "启": 2739,
      "吴": 2740,
      "吵": 2741,
      "吹": 2742,
      "呂": 2743,
      "告": 2744,
      "员": 2745,
      "呢": 2746,
      "周": 2747,
      "呪": 2748,
      "味": 2749,
      "呼": 2750,
      "命": 2751,
      "和": 2752,
      "咖": 2753,
      "咨": 2754,
      "哀": 2755,
      "品": 2756,
      "哈": 2757,
      "响": 2758,
      "員": 2759,
      "哥": 2760,
      "哪": 2761,
      "哮": 2762,
      "哺": 2763,
      "唇": 2764,
      "唐": 2765,
      "售": 2766,
      "唯": 2767,
      "唱": 2768,
      "唾": 2769,
      "商": 2770,
      "啊": 2771,
      "問": 2772,
      "啡": 2773,
      "啤": 2774,
      "啮": 2775,
      "喃": 2776,
      "喉": 2777,
      "喋": 2778,
      "喘": 2779,
      "喜": 2780,
      "営": 2781,
      "嗅": 2782,
      "嗎": 2783,
      "嗨": 2784,
      "嘗": 2785,
      "嘢": 2786,
      "噂": 2787,
      "噛": 2788,
      "器": 2789,
      "四": 2790,
      "回": 2791,
      "因": 2792,
      "团": 2793,
      "団": 2794,
      "园": 2795,
      "困": 2796,
      "囲": 2797,
      "図": 2798,
      "围": 2799,
      "固": 2800,
      "国": 2801,
      "图": 2802,
      "圆": 2803,
      "國": 2804,
      "圏": 2805,
      "園": 2806,
      "圓": 2807,
      "圖": 2808,
      "土": 2809,
      "圧": 2810,
      "在": 2811,
      "地": 2812,
      "圱": 2813,
      "圳": 2814,
      "场": 2815,
      "坂": 2816,
      "均": 2817,
      "坊": 2818,
      "坐": 2819,
      "坚": 2820,
      "坝": 2821,
      "坡": 2822,
      "坦": 2823,
      "坵": 2824,
      "垄": 2825,
      "型": 2826,
      "垢": 2827,
      "埃": 2828,
      "埋": 2829,
      "城": 2830,
      "埔": 2831,
      "域": 2832,
      "埠": 2833,
      "基": 2834,
      "埼": 2835,
      "堀": 2836,
      "堂": 2837,
      "堅": 2838,
      "堡": 2839,
      "報": 2840,
      "場": 2841,
      "塀": 2842,
      "塑": 2843,
      "塔": 2844,
      "塘": 2845,
      "塞": 2846,
      "塩": 2847,
      "塾": 2848,
      "境": 2849,
      "墓": 2850,
      "増": 2851,
      "墙": 2852,
      "墨": 2853,
      "墩": 2854,
      "壁": 2855,
      "壤": 2856,
      "壩": 2857,
      "士": 2858,
      "壮": 2859,
      "声": 2860,
      "売": 2861,
      "备": 2862,
      "変": 2863,
      "夕": 2864,
      "外": 2865,
      "多": 2866,
      "夜": 2867,
      "夢": 2868,
      "夥": 2869,
      "大": 2870,
      "天": 2871,
      "太": 2872,
      "央": 2873,
      "失": 2874,
      "头": 2875,
      "奇": 2876,
      "契": 2877,
      "奖": 2878,
      "套": 2879,
      "奥": 2880,
      "女": 2881,
      "奴": 2882,
      "奶": 2883,
      "好": 2884,
      "如": 2885,
      "妃": 2886,
      "妹": 2887,
      "妻": 2888,
      "姉": 2889,
      "始": 2890,
      "姑": 2891,
      "姓": 2892,
      "委": 2893,
      "姫": 2894,
      "姿": 2895,
      "威": 2896,
      "娃": 2897,
      "娘": 2898,
      "娭": 2899,
      "婆": 2900,
      "婚": 2901,
      "婿": 2902,
      "媒": 2903,
      "媽": 2904,
      "嫁": 2905,
      "嫌": 2906,
      "嬌": 2907,
      "子": 2908,
      "字": 2909,
      "存": 2910,
      "孟": 2911,
      "季": 2912,
      "孤": 2913,
      "学": 2914,
      "孫": 2915,
      "孲": 2916,
      "學": 2917,
      "宁": 2918,
      "宅": 2919,
      "宇": 2920,
      "守": 2921,
      "安": 2922,
      "宗": 2923,
      "宙": 2924,
      "定": 2925,
      "宛": 2926,
      "宜": 2927,
      "宝": 2928,
      "实": 2929,
      "実": 2930,
      "宠": 2931,
      "客": 2932,
      "宣": 2933,
      "室": 2934,
      "宮": 2935,
      "害": 2936,
      "家": 2937,
      "容": 2938,
      "宽": 2939,
      "宿": 2940,
      "寄": 2941,
      "密": 2942,
      "富": 2943,
      "寒": 2944,
      "寛": 2945,
      "寝": 2946,
      "察": 2947,
      "實": 2948,
      "寨": 2949,
      "審": 2950,
      "寫": 2951,
      "寮": 2952,
      "寶": 2953,
      "寸": 2954,
      "寺": 2955,
      "导": 2956,
      "対": 2957,
      "封": 2958,
      "専": 2959,
      "射": 2960,
      "将": 2961,
      "將": 2962,
      "專": 2963,
      "尉": 2964,
      "尋": 2965,
      "導": 2966,
      "小": 2967,
      "少": 2968,
      "尔": 2969,
      "尖": 2970,
      "尚": 2971,
      "就": 2972,
      "尺": 2973,
      "尻": 2974,
      "尼": 2975,
      "尾": 2976,
      "尿": 2977,
      "局": 2978,
      "居": 2979,
      "届": 2980,
      "屋": 2981,
      "屏": 2982,
      "展": 2983,
      "属": 2984,
      "屡": 2985,
      "層": 2986,
      "履": 2987,
      "山": 2988,
      "岛": 2989,
      "岩": 2990,
      "峡": 2991,
      "峰": 2992,
      "島": 2993,
      "峽": 2994,
      "崃": 2995,
      "崖": 2996,
      "嵐": 2997,
      "嶼": 2998,
      "川": 2999,
      "州": 3000,
      "巡": 3001,
      "巢": 3002,
      "巣": 3003,
      "工": 3004,
      "左": 3005,
      "差": 3006,
      "己": 3007,
      "已": 3008,
      "巴": 3009,
      "币": 3010,
      "市": 3011,
      "布": 3012,
      "帆": 3013,
      "师": 3014,
      "希": 3015,
      "帕": 3016,
      "帚": 3017,
      "帝": 3018,
      "带": 3019,
      "師": 3020,
      "席": 3021,
      "帮": 3022,
      "帯": 3023,
      "帰": 3024,
      "帶": 3025,
      "常": 3026,
      "帽": 3027,
      "幅": 3028,
      "幕": 3029,
      "幟": 3030,
      "幣": 3031,
      "干": 3032,
      "平": 3033,
      "年": 3034,
      "并": 3035,
      "幸": 3036,
      "幹": 3037,
      "幼": 3038,
      "幾": 3039,
      "广": 3040,
      "庁": 3041,
      "広": 3042,
      "床": 3043,
      "序": 3044,
      "应": 3045,
      "底": 3046,
      "店": 3047,
      "庙": 3048,
      "府": 3049,
      "废": 3050,
      "度": 3051,
      "座": 3052,
      "庫": 3053,
      "庭": 3054,
      "康": 3055,
      "廁": 3056,
      "廳": 3057,
      "延": 3058,
      "建": 3059,
      "开": 3060,
      "弃": 3061,
      "弈": 3062,
      "式": 3063,
      "弓": 3064,
      "引": 3065,
      "弘": 3066,
      "弛": 3067,
      "弟": 3068,
      "张": 3069,
      "弩": 3070,
      "弱": 3071,
      "張": 3072,
      "強": 3073,
      "弹": 3074,
      "强": 3075,
      "弾": 3076,
      "弿": 3077,
      "当": 3078,
      "录": 3079,
      "彗": 3080,
      "彡": 3081,
      "形": 3082,
      "彩": 3083,
      "彪": 3084,
      "彫": 3085,
      "影": 3086,
      "役": 3087,
      "彻": 3088,
      "往": 3089,
      "径": 3090,
      "待": 3091,
      "很": 3092,
      "律": 3093,
      "後": 3094,
      "徒": 3095,
      "得": 3096,
      "御": 3097,
      "復": 3098,
      "微": 3099,
      "徴": 3100,
      "徵": 3101,
      "德": 3102,
      "徽": 3103,
      "心": 3104,
      "必": 3105,
      "忌": 3106,
      "志": 3107,
      "忘": 3108,
      "忙": 3109,
      "応": 3110,
      "快": 3111,
      "念": 3112,
      "怀": 3113,
      "态": 3114,
      "怒": 3115,
      "怖": 3116,
      "思": 3117,
      "急": 3118,
      "性": 3119,
      "怪": 3120,
      "总": 3121,
      "恋": 3122,
      "恐": 3123,
      "恒": 3124,
      "恕": 3125,
      "恤": 3126,
      "恥": 3127,
      "恩": 3128,
      "恭": 3129,
      "息": 3130,
      "恵": 3131,
      "悉": 3132,
      "悍": 3133,
      "悔": 3134,
      "悟": 3135,
      "患": 3136,
      "您": 3137,
      "悪": 3138,
      "悬": 3139,
      "悲": 3140,
      "情": 3141,
      "惊": 3142,
      "惜": 3143,
      "惨": 3144,
      "想": 3145,
      "惹": 3146,
      "意": 3147,
      "愚": 3148,
      "愛": 3149,
      "感": 3150,
      "愷": 3151,
      "態": 3152,
      "慎": 3153,
      "慑": 3154,
      "慣": 3155,
      "慧": 3156,
      "憎": 3157,
      "憩": 3158,
      "憲": 3159,
      "憶": 3160,
      "憾": 3161,
      "應": 3162,
      "懐": 3163,
      "戈": 3164,
      "戏": 3165,
      "成": 3166,
      "我": 3167,
      "戒": 3168,
      "或": 3169,
      "战": 3170,
      "戦": 3171,
      "戯": 3172,
      "戰": 3173,
      "戴": 3174,
      "户": 3175,
      "戸": 3176,
      "戻": 3177,
      "房": 3178,
      "所": 3179,
      "扇": 3180,
      "扉": 3181,
      "手": 3182,
      "才": 3183,
      "打": 3184,
      "払": 3185,
      "托": 3186,
      "扣": 3187,
      "扫": 3188,
      "扬": 3189,
      "扭": 3190,
      "批": 3191,
      "找": 3192,
      "承": 3193,
      "技": 3194,
      "把": 3195,
      "抑": 3196,
      "投": 3197,
      "折": 3198,
      "护": 3199,
      "报": 3200,
      "押": 3201,
      "抽": 3202,
      "担": 3203,
      "拆": 3204,
      "拉": 3205,
      "拔": 3206,
      "拘": 3207,
      "招": 3208,
      "拟": 3209,
      "括": 3210,
      "拳": 3211,
      "拶": 3212,
      "拼": 3213,
      "持": 3214,
      "挂": 3215,
      "指": 3216,
      "挑": 3217,
      "挙": 3218,
      "挝": 3219,
      "挨": 3220,
      "挪": 3221,
      "振": 3222,
      "捇": 3223,
      "捕": 3224,
      "换": 3225,
      "捨": 3226,
      "据": 3227,
      "捲": 3228,
      "捷": 3229,
      "捻": 3230,
      "授": 3231,
      "掌": 3232,
      "排": 3233,
      "採": 3234,
      "探": 3235,
      "接": 3236,
      "推": 3237,
      "措": 3238,
      "掲": 3239,
      "描": 3240,
      "提": 3241,
      "揚": 3242,
      "換": 3243,
      "握": 3244,
      "揮": 3245,
      "損": 3246,
      "携": 3247,
      "摊": 3248,
      "摩": 3249,
      "摺": 3250,
      "撒": 3251,
      "撥": 3252,
      "撾": 3253,
      "操": 3254,
      "擦": 3255,
      "擬": 3256,
      "支": 3257,
      "收": 3258,
      "改": 3259,
      "攻": 3260,
      "放": 3261,
      "政": 3262,
      "故": 3263,
      "效": 3264,
      "救": 3265,
      "敗": 3266,
      "教": 3267,
      "敢": 3268,
      "散": 3269,
      "数": 3270,
      "整": 3271,
      "敵": 3272,
      "敷": 3273,
      "數": 3274,
      "文": 3275,
      "斗": 3276,
      "料": 3277,
      "斜": 3278,
      "斧": 3279,
      "斬": 3280,
      "断": 3281,
      "斯": 3282,
      "新": 3283,
      "方": 3284,
      "施": 3285,
      "旅": 3286,
      "族": 3287,
      "旗": 3288,
      "无": 3289,
      "日": 3290,
      "旨": 3291,
      "早": 3292,
      "旬": 3293,
      "旱": 3294,
      "时": 3295,
      "昆": 3296,
      "明": 3297,
      "易": 3298,
      "昔": 3299,
      "星": 3300,
      "映": 3301,
      "春": 3302,
      "昧": 3303,
      "昨": 3304,
      "昭": 3305,
      "是": 3306,
      "昼": 3307,
      "显": 3308,
      "時": 3309,
      "晚": 3310,
      "晤": 3311,
      "晨": 3312,
      "晩": 3313,
      "普": 3314,
      "景": 3315,
      "晴": 3316,
      "智": 3317,
      "暖": 3318,
      "暗": 3319,
      "暦": 3320,
      "暴": 3321,
      "暹": 3322,
      "曇": 3323,
      "曖": 3324,
      "曲": 3325,
      "更": 3326,
      "書": 3327,
      "曹": 3328,
      "曾": 3329,
      "最": 3330,
      "會": 3331,
      "月": 3332,
      "有": 3333,
      "朋": 3334,
      "服": 3335,
      "朗": 3336,
      "望": 3337,
      "朝": 3338,
      "期": 3339,
      "木": 3340,
      "未": 3341,
      "末": 3342,
      "本": 3343,
      "术": 3344,
      "朱": 3345,
      "机": 3346,
      "杁": 3347,
      "杂": 3348,
      "权": 3349,
      "杆": 3350,
      "李": 3351,
      "材": 3352,
      "村": 3353,
      "杖": 3354,
      "束": 3355,
      "杠": 3356,
      "条": 3357,
      "来": 3358,
      "杯": 3359,
      "杰": 3360,
      "東": 3361,
      "松": 3362,
      "板": 3363,
      "极": 3364,
      "枉": 3365,
      "析": 3366,
      "枕": 3367,
      "林": 3368,
      "枚": 3369,
      "果": 3370,
      "枝": 3371,
      "枠": 3372,
      "枫": 3373,
      "架": 3374,
      "某": 3375,
      "染": 3376,
      "柔": 3377,
      "柜": 3378,
      "柠": 3379,
      "柬": 3380,
      "柱": 3381,
      "柴": 3382,
      "柿": 3383,
      "栄": 3384,
      "标": 3385,
      "树": 3386,
      "栓": 3387,
      "栖": 3388,
      "栗": 3389,
      "校": 3390,
      "株": 3391,
      "样": 3392,
      "核": 3393,
      "根": 3394,
      "格": 3395,
      "栽": 3396,
      "桁": 3397,
      "桃": 3398,
      "案": 3399,
      "桜": 3400,
      "桥": 3401,
      "桧": 3402,
      "桶": 3403,
      "梅": 3404,
      "梘": 3405,
      "梨": 3406,
      "梯": 3407,
      "械": 3408,
      "检": 3409,
      "棍": 3410,
      "棒": 3411,
      "棕": 3412,
      "棘": 3413,
      "森": 3414,
      "棺": 3415,
      "椅": 3416,
      "植": 3417,
      "椒": 3418,
      "検": 3419,
      "椰": 3420,
      "業": 3421,
      "極": 3422,
      "楽": 3423,
      "概": 3424,
      "榎": 3425,
      "榴": 3426,
      "槌": 3427,
      "様": 3428,
      "槤": 3429,
      "槻": 3430,
      "槽": 3431,
      "樂": 3432,
      "樓": 3433,
      "標": 3434,
      "模": 3435,
      "権": 3436,
      "樱": 3437,
      "樹": 3438,
      "橄": 3439,
      "橋": 3440,
      "橙": 3441,
      "機": 3442,
      "橡": 3443,
      "橱": 3444,
      "檎": 3445,
      "檬": 3446,
      "檸": 3447,
      "檻": 3448,
      "權": 3449,
      "欖": 3450,
      "次": 3451,
      "欢": 3452,
      "欧": 3453,
      "欲": 3454,
      "欺": 3455,
      "款": 3456,
      "歌": 3457,
      "歐": 3458,
      "止": 3459,
      "正": 3460,
      "此": 3461,
      "武": 3462,
      "歧": 3463,
      "歩": 3464,
      "歪": 3465,
      "歯": 3466,
      "歳": 3467,
      "歴": 3468,
      "歷": 3469,
      "死": 3470,
      "歼": 3471,
      "残": 3472,
      "殖": 3473,
      "段": 3474,
      "殺": 3475,
      "殻": 3476,
      "殿": 3477,
      "母": 3478,
      "毎": 3479,
      "每": 3480,
      "毑": 3481,
      "毒": 3482,
      "比": 3483,
      "毛": 3484,
      "毫": 3485,
      "氏": 3486,
      "民": 3487,
      "氓": 3488,
      "气": 3489,
      "気": 3490,
      "氣": 3491,
      "氧": 3492,
      "氫": 3493,
      "氮": 3494,
      "水": 3495,
      "永": 3496,
      "求": 3497,
      "汇": 3498,
      "汉": 3499,
      "汚": 3500,
      "江": 3501,
      "池": 3502,
      "污": 3503,
      "汤": 3504,
      "汪": 3505,
      "決": 3506,
      "汽": 3507,
      "沈": 3508,
      "沉": 3509,
      "沒": 3510,
      "沖": 3511,
      "沙": 3512,
      "没": 3513,
      "沢": 3514,
      "河": 3515,
      "沸": 3516,
      "油": 3517,
      "治": 3518,
      "況": 3519,
      "泉": 3520,
      "泌": 3521,
      "法": 3522,
      "泛": 3523,
      "泡": 3524,
      "波": 3525,
      "泥": 3526,
      "注": 3527,
      "泰": 3528,
      "泽": 3529,
      "洋": 3530,
      "洛": 3531,
      "洞": 3532,
      "洲": 3533,
      "活": 3534,
      "派": 3535,
      "流": 3536,
      "浄": 3537,
      "测": 3538,
      "济": 3539,
      "浜": 3540,
      "浦": 3541,
      "浩": 3542,
      "浪": 3543,
      "海": 3544,
      "消": 3545,
      "涉": 3546,
      "涎": 3547,
      "涙": 3548,
      "液": 3549,
      "涼": 3550,
      "淡": 3551,
      "深": 3552,
      "混": 3553,
      "清": 3554,
      "済": 3555,
      "渉": 3556,
      "減": 3557,
      "渡": 3558,
      "温": 3559,
      "測": 3560,
      "港": 3561,
      "游": 3562,
      "湄": 3563,
      "湖": 3564,
      "湯": 3565,
      "湾": 3566,
      "満": 3567,
      "源": 3568,
      "準": 3569,
      "溝": 3570,
      "溶": 3571,
      "滑": 3572,
      "滝": 3573,
      "滸": 3574,
      "滿": 3575,
      "演": 3576,
      "漕": 3577,
      "漠": 3578,
      "漢": 3579,
      "漫": 3580,
      "潜": 3581,
      "潟": 3582,
      "潤": 3583,
      "潮": 3584,
      "潰": 3585,
      "澄": 3586,
      "澎": 3587,
      "澳": 3588,
      "激": 3589,
      "濟": 3590,
      "瀑": 3591,
      "瀬": 3592,
      "灘": 3593,
      "灣": 3594,
      "火": 3595,
      "灭": 3596,
      "灰": 3597,
      "灿": 3598,
      "炉": 3599,
      "炎": 3600,
      "炒": 3601,
      "炙": 3602,
      "炭": 3603,
      "点": 3604,
      "為": 3605,
      "烈": 3606,
      "烏": 3607,
      "烛": 3608,
      "烦": 3609,
      "烧": 3610,
      "烬": 3611,
      "烹": 3612,
      "無": 3613,
      "焦": 3614,
      "然": 3615,
      "焼": 3616,
      "煙": 3617,
      "照": 3618,
      "熊": 3619,
      "熔": 3620,
      "熟": 3621,
      "熬": 3622,
      "熱": 3623,
      "燃": 3624,
      "燕": 3625,
      "燥": 3626,
      "爆": 3627,
      "爪": 3628,
      "爬": 3629,
      "爱": 3630,
      "爹": 3631,
      "爽": 3632,
      "片": 3633,
      "版": 3634,
      "牌": 3635,
      "牙": 3636,
      "牛": 3637,
      "牧": 3638,
      "物": 3639,
      "特": 3640,
      "犀": 3641,
      "犁": 3642,
      "犂": 3643,
      "犬": 3644,
      "犯": 3645,
      "状": 3646,
      "狀": 3647,
      "狐": 3648,
      "狗": 3649,
      "狩": 3650,
      "狫": 3651,
      "独": 3652,
      "狮": 3653,
      "狸": 3654,
      "猜": 3655,
      "猟": 3656,
      "猪": 3657,
      "猫": 3658,
      "献": 3659,
      "猴": 3660,
      "猿": 3661,
      "獄": 3662,
      "獨": 3663,
      "獲": 3664,
      "率": 3665,
      "玉": 3666,
      "王": 3667,
      "玩": 3668,
      "现": 3669,
      "玻": 3670,
      "珊": 3671,
      "珍": 3672,
      "珠": 3673,
      "現": 3674,
      "球": 3675,
      "理": 3676,
      "琵": 3677,
      "琶": 3678,
      "瑚": 3679,
      "瑞": 3680,
      "瑪": 3681,
      "璃": 3682,
      "瓜": 3683,
      "瓢": 3684,
      "瓦": 3685,
      "瓶": 3686,
      "瓷": 3687,
      "生": 3688,
      "產": 3689,
      "産": 3690,
      "甥": 3691,
      "用": 3692,
      "田": 3693,
      "由": 3694,
      "申": 3695,
      "电": 3696,
      "男": 3697,
      "町": 3698,
      "画": 3699,
      "界": 3700,
      "畑": 3701,
      "留": 3702,
      "畜": 3703,
      "略": 3704,
      "番": 3705,
      "異": 3706,
      "當": 3707,
      "疆": 3708,
      "疑": 3709,
      "疟": 3710,
      "疼": 3711,
      "疾": 3712,
      "病": 3713,
      "症": 3714,
      "痛": 3715,
      "瘍": 3716,
      "療": 3717,
      "癒": 3718,
      "癖": 3719,
      "発": 3720,
      "登": 3721,
      "發": 3722,
      "白": 3723,
      "百": 3724,
      "皂": 3725,
      "的": 3726,
      "皆": 3727,
      "皇": 3728,
      "皮": 3729,
      "盆": 3730,
      "益": 3731,
      "监": 3732,
      "盔": 3733,
      "盖": 3734,
      "盗": 3735,
      "盛": 3736,
      "盟": 3737,
      "監": 3738,
      "目": 3739,
      "直": 3740,
      "相": 3741,
      "省": 3742,
      "眉": 3743,
      "看": 3744,
      "県": 3745,
      "真": 3746,
      "眠": 3747,
      "眼": 3748,
      "着": 3749,
      "睡": 3750,
      "督": 3751,
      "睫": 3752,
      "瞬": 3753,
      "瞳": 3754,
      "矛": 3755,
      "矢": 3756,
      "知": 3757,
      "矩": 3758,
      "短": 3759,
      "矮": 3760,
      "石": 3761,
      "矽": 3762,
      "矿": 3763,
      "码": 3764,
      "砂": 3765,
      "研": 3766,
      "砕": 3767,
      "砣": 3768,
      "破": 3769,
      "础": 3770,
      "硅": 3771,
      "硬": 3772,
      "碎": 3773,
      "碧": 3774,
      "碰": 3775,
      "碱": 3776,
      "磁": 3777,
      "磊": 3778,
      "磚": 3779,
      "磨": 3780,
      "礎": 3781,
      "示": 3782,
      "礼": 3783,
      "社": 3784,
      "祈": 3785,
      "祉": 3786,
      "祖": 3787,
      "神": 3788,
      "祠": 3789,
      "票": 3790,
      "禅": 3791,
      "福": 3792,
      "禧": 3793,
      "离": 3794,
      "秀": 3795,
      "私": 3796,
      "秉": 3797,
      "秋": 3798,
      "种": 3799,
      "科": 3800,
      "秒": 3801,
      "秘": 3802,
      "租": 3803,
      "秦": 3804,
      "积": 3805,
      "称": 3806,
      "移": 3807,
      "稀": 3808,
      "程": 3809,
      "税": 3810,
      "稚": 3811,
      "稜": 3812,
      "種": 3813,
      "稲": 3814,
      "稻": 3815,
      "稼": 3816,
      "稿": 3817,
      "穆": 3818,
      "積": 3819,
      "穴": 3820,
      "究": 3821,
      "空": 3822,
      "突": 3823,
      "窓": 3824,
      "窗": 3825,
      "窟": 3826,
      "立": 3827,
      "竜": 3828,
      "竞": 3829,
      "章": 3830,
      "童": 3831,
      "端": 3832,
      "競": 3833,
      "竹": 3834,
      "竿": 3835,
      "笋": 3836,
      "笑": 3837,
      "笔": 3838,
      "笛": 3839,
      "符": 3840,
      "第": 3841,
      "筆": 3842,
      "等": 3843,
      "筋": 3844,
      "筒": 3845,
      "策": 3846,
      "筛": 3847,
      "签": 3848,
      "简": 3849,
      "算": 3850,
      "管": 3851,
      "箭": 3852,
      "箱": 3853,
      "節": 3854,
      "篇": 3855,
      "築": 3856,
      "篮": 3857,
      "簡": 3858,
      "簾": 3859,
      "籃": 3860,
      "籍": 3861,
      "籤": 3862,
      "米": 3863,
      "类": 3864,
      "粉": 3865,
      "粋": 3866,
      "粒": 3867,
      "粤": 3868,
      "粥": 3869,
      "糊": 3870,
      "糖": 3871,
      "糠": 3872,
      "糯": 3873,
      "糸": 3874,
      "系": 3875,
      "紀": 3876,
      "約": 3877,
      "紅": 3878,
      "納": 3879,
      "純": 3880,
      "紙": 3881,
      "級": 3882,
      "素": 3883,
      "索": 3884,
      "紫": 3885,
      "紹": 3886,
      "紺": 3887,
      "終": 3888,
      "組": 3889,
      "絆": 3890,
      "経": 3891,
      "結": 3892,
      "絡": 3893,
      "絮": 3894,
      "統": 3895,
      "絲": 3896,
      "絵": 3897,
      "絹": 3898,
      "經": 3899,
      "続": 3900,
      "綠": 3901,
      "維": 3902,
      "綱": 3903,
      "網": 3904,
      "綸": 3905,
      "綿": 3906,
      "緊": 3907,
      "緑": 3908,
      "緒": 3909,
      "線": 3910,
      "編": 3911,
      "練": 3912,
      "縦": 3913,
      "縫": 3914,
      "績": 3915,
      "繁": 3916,
      "繋": 3917,
      "織": 3918,
      "繭": 3919,
      "纏": 3920,
      "红": 3921,
      "约": 3922,
      "纪": 3923,
      "纯": 3924,
      "纸": 3925,
      "纺": 3926,
      "线": 3927,
      "练": 3928,
      "组": 3929,
      "细": 3930,
      "织": 3931,
      "终": 3932,
      "经": 3933,
      "绒": 3934,
      "结": 3935,
      "给": 3936,
      "络": 3937,
      "绝": 3938,
      "统": 3939,
      "续": 3940,
      "绸": 3941,
      "绿": 3942,
      "编": 3943,
      "缩": 3944,
      "缭": 3945,
      "缶": 3946,
      "网": 3947,
      "罗": 3948,
      "罠": 3949,
      "罪": 3950,
      "置": 3951,
      "罰": 3952,
      "羅": 3953,
      "羆": 3954,
      "羊": 3955,
      "美": 3956,
      "群": 3957,
      "義": 3958,
      "羽": 3959,
      "習": 3960,
      "翔": 3961,
      "翻": 3962,
      "翼": 3963,
      "老": 3964,
      "考": 3965,
      "者": 3966,
      "而": 3967,
      "耳": 3968,
      "耶": 3969,
      "联": 3970,
      "聖": 3971,
      "聘": 3972,
      "聚": 3973,
      "聞": 3974,
      "聲": 3975,
      "職": 3976,
      "肉": 3977,
      "肌": 3978,
      "肘": 3979,
      "肚": 3980,
      "肝": 3981,
      "股": 3982,
      "肥": 3983,
      "肩": 3984,
      "育": 3985,
      "肺": 3986,
      "胀": 3987,
      "胃": 3988,
      "胆": 3989,
      "背": 3990,
      "胜": 3991,
      "胡": 3992,
      "胸": 3993,
      "能": 3994,
      "脂": 3995,
      "脇": 3996,
      "脈": 3997,
      "脐": 3998,
      "脑": 3999,
      "脚": 4000,
      "脱": 4001,
      "脳": 4002,
      "脷": 4003,
      "脸": 4004,
      "腊": 4005,
      "腌": 4006,
      "腐": 4007,
      "腔": 4008,
      "腦": 4009,
      "腰": 4010,
      "腸": 4011,
      "腾": 4012,
      "腿": 4013,
      "膝": 4014,
      "膣": 4015,
      "膨": 4016,
      "膾": 4017,
      "臉": 4018,
      "臍": 4019,
      "臓": 4020,
      "臘": 4021,
      "臜": 4022,
      "臟": 4023,
      "臣": 4024,
      "自": 4025,
      "臭": 4026,
      "至": 4027,
      "致": 4028,
      "臺": 4029,
      "與": 4030,
      "興": 4031,
      "舉": 4032,
      "舌": 4033,
      "舍": 4034,
      "舎": 4035,
      "舞": 4036,
      "舟": 4037,
      "航": 4038,
      "船": 4039,
      "艇": 4040,
      "艚": 4041,
      "艦": 4042,
      "良": 4043,
      "色": 4044,
      "艺": 4045,
      "艾": 4046,
      "节": 4047,
      "芋": 4048,
      "芒": 4049,
      "芝": 4050,
      "芦": 4051,
      "芬": 4052,
      "芭": 4053,
      "芯": 4054,
      "花": 4055,
      "芸": 4056,
      "芹": 4057,
      "芽": 4058,
      "苏": 4059,
      "苔": 4060,
      "苡": 4061,
      "若": 4062,
      "苦": 4063,
      "英": 4064,
      "范": 4065,
      "茄": 4066,
      "茉": 4067,
      "茶": 4068,
      "茸": 4069,
      "草": 4070,
      "荐": 4071,
      "荒": 4072,
      "荔": 4073,
      "荣": 4074,
      "药": 4075,
      "荷": 4076,
      "莉": 4077,
      "莱": 4078,
      "获": 4079,
      "菊": 4080,
      "菌": 4081,
      "菜": 4082,
      "菠": 4083,
      "華": 4084,
      "菽": 4085,
      "萄": 4086,
      "萍": 4087,
      "萝": 4088,
      "营": 4089,
      "萨": 4090,
      "落": 4091,
      "葉": 4092,
      "葡": 4093,
      "葱": 4094,
      "葵": 4095,
      "蒜": 4096,
      "蒸": 4097,
      "蓄": 4098,
      "蓋": 4099,
      "蓝": 4100,
      "蓬": 4101,
      "蔔": 4102,
      "蔥": 4103,
      "蔬": 4104,
      "蔵": 4105,
      "蔻": 4106,
      "蔼": 4107,
      "蕉": 4108,
      "蕞": 4109,
      "蕾": 4110,
      "薄": 4111,
      "薏": 4112,
      "薑": 4113,
      "薬": 4114,
      "薯": 4115,
      "藁": 4116,
      "藍": 4117,
      "藏": 4118,
      "藥": 4119,
      "蘋": 4120,
      "蘭": 4121,
      "蘿": 4122,
      "虎": 4123,
      "虑": 4124,
      "虚": 4125,
      "虛": 4126,
      "號": 4127,
      "虫": 4128,
      "虹": 4129,
      "蚊": 4130,
      "蚕": 4131,
      "蛇": 4132,
      "蛋": 4133,
      "蛍": 4134,
      "蛙": 4135,
      "蛛": 4136,
      "蛤": 4137,
      "蛰": 4138,
      "蜂": 4139,
      "蜘": 4140,
      "蜜": 4141,
      "蜡": 4142,
      "蝉": 4143,
      "蝕": 4144,
      "蝗": 4145,
      "蝙": 4146,
      "蝟": 4147,
      "蝠": 4148,
      "蝶": 4149,
      "螃": 4150,
      "融": 4151,
      "蟀": 4152,
      "蟋": 4153,
      "蟲": 4154,
      "蟹": 4155,
      "蠍": 4156,
      "蠟": 4157,
      "血": 4158,
      "衆": 4159,
      "行": 4160,
      "術": 4161,
      "街": 4162,
      "衛": 4163,
      "衡": 4164,
      "衣": 4165,
      "补": 4166,
      "表": 4167,
      "衫": 4168,
      "衰": 4169,
      "袋": 4170,
      "袖": 4171,
      "被": 4172,
      "袴": 4173,
      "裁": 4174,
      "装": 4175,
      "裏": 4176,
      "裙": 4177,
      "補": 4178,
      "裝": 4179,
      "製": 4180,
      "複": 4181,
      "褐": 4182,
      "褲": 4183,
      "襲": 4184,
      "西": 4185,
      "要": 4186,
      "覆": 4187,
      "見": 4188,
      "規": 4189,
      "視": 4190,
      "覚": 4191,
      "親": 4192,
      "観": 4193,
      "覺": 4194,
      "见": 4195,
      "观": 4196,
      "规": 4197,
      "视": 4198,
      "觉": 4199,
      "角": 4200,
      "解": 4201,
      "触": 4202,
      "觹": 4203,
      "觼": 4204,
      "言": 4205,
      "計": 4206,
      "記": 4207,
      "訪": 4208,
      "設": 4209,
      "許": 4210,
      "訳": 4211,
      "証": 4212,
      "詐": 4213,
      "詞": 4214,
      "試": 4215,
      "詩": 4216,
      "詫": 4217,
      "話": 4218,
      "誇": 4219,
      "誌": 4220,
      "誕": 4221,
      "語": 4222,
      "誠": 4223,
      "誤": 4224,
      "説": 4225,
      "読": 4226,
      "誰": 4227,
      "課": 4228,
      "調": 4229,
      "請": 4230,
      "論": 4231,
      "諦": 4232,
      "謎": 4233,
      "謚": 4234,
      "講": 4235,
      "謝": 4236,
      "證": 4237,
      "識": 4238,
      "警": 4239,
      "譯": 4240,
      "議": 4241,
      "護": 4242,
      "讓": 4243,
      "计": 4244,
      "讨": 4245,
      "让": 4246,
      "议": 4247,
      "讯": 4248,
      "记": 4249,
      "讲": 4250,
      "论": 4251,
      "设": 4252,
      "访": 4253,
      "证": 4254,
      "评": 4255,
      "识": 4256,
      "诉": 4257,
      "词": 4258,
      "译": 4259,
      "试": 4260,
      "诗": 4261,
      "话": 4262,
      "询": 4263,
      "该": 4264,
      "语": 4265,
      "说": 4266,
      "请": 4267,
      "读": 4268,
      "课": 4269,
      "调": 4270,
      "谷": 4271,
      "豆": 4272,
      "豊": 4273,
      "豐": 4274,
      "豚": 4275,
      "象": 4276,
      "豪": 4277,
      "豬": 4278,
      "豹": 4279,
      "貌": 4280,
      "貓": 4281,
      "貝": 4282,
      "貞": 4283,
      "負": 4284,
      "財": 4285,
      "貢": 4286,
      "貧": 4287,
      "貨": 4288,
      "販": 4289,
      "貯": 4290,
      "買": 4291,
      "費": 4292,
      "賀": 4293,
      "賂": 4294,
      "賃": 4295,
      "賄": 4296,
      "資": 4297,
      "賞": 4298,
      "賣": 4299,
      "質": 4300,
      "賭": 4301,
      "購": 4302,
      "败": 4303,
      "货": 4304,
      "质": 4305,
      "购": 4306,
      "贸": 4307,
      "费": 4308,
      "资": 4309,
      "赌": 4310,
      "赢": 4311,
      "赤": 4312,
      "走": 4313,
      "起": 4314,
      "超": 4315,
      "越": 4316,
      "足": 4317,
      "距": 4318,
      "跟": 4319,
      "跡": 4320,
      "路": 4321,
      "踊": 4322,
      "踪": 4323,
      "踵": 4324,
      "身": 4325,
      "車": 4326,
      "軍": 4327,
      "軒": 4328,
      "転": 4329,
      "軸": 4330,
      "載": 4331,
      "輩": 4332,
      "輪": 4333,
      "轆": 4334,
      "车": 4335,
      "转": 4336,
      "软": 4337,
      "轰": 4338,
      "轴": 4339,
      "载": 4340,
      "较": 4341,
      "辆": 4342,
      "辑": 4343,
      "辛": 4344,
      "辞": 4345,
      "辣": 4346,
      "辦": 4347,
      "農": 4348,
      "边": 4349,
      "辺": 4350,
      "込": 4351,
      "辽": 4352,
      "达": 4353,
      "迎": 4354,
      "运": 4355,
      "近": 4356,
      "还": 4357,
      "这": 4358,
      "进": 4359,
      "远": 4360,
      "连": 4361,
      "迟": 4362,
      "迫": 4363,
      "迷": 4364,
      "追": 4365,
      "退": 4366,
      "送": 4367,
      "逃": 4368,
      "选": 4369,
      "透": 4370,
      "通": 4371,
      "速": 4372,
      "造": 4373,
      "連": 4374,
      "週": 4375,
      "進": 4376,
      "逻": 4377,
      "遇": 4378,
      "遊": 4379,
      "運": 4380,
      "過": 4381,
      "道": 4382,
      "達": 4383,
      "違": 4384,
      "遠": 4385,
      "遭": 4386,
      "遷": 4387,
      "選": 4388,
      "遺": 4389,
      "避": 4390,
      "還": 4391,
      "那": 4392,
      "邦": 4393,
      "邪": 4394,
      "部": 4395,
      "郭": 4396,
      "郵": 4397,
      "都": 4398,
      "鄢": 4399,
      "鄭": 4400,
      "配": 4401,
      "酒": 4402,
      "酢": 4403,
      "酪": 4404,
      "酬": 4405,
      "酷": 4406,
      "酸": 4407,
      "醒": 4408,
      "醜": 4409,
      "醫": 4410,
      "采": 4411,
      "里": 4412,
      "重": 4413,
      "野": 4414,
      "量": 4415,
      "金": 4416,
      "針": 4417,
      "釣": 4418,
      "鈍": 4419,
      "鈞": 4420,
      "鈴": 4421,
      "鉛": 4422,
      "鉢": 4423,
      "鉱": 4424,
      "鉸": 4425,
      "銀": 4426,
      "銃": 4427,
      "鋏": 4428,
      "鋭": 4429,
      "鋸": 4430,
      "鋼": 4431,
      "錢": 4432,
      "錫": 4433,
      "録": 4434,
      "鍋": 4435,
      "鍵": 4436,
      "鏞": 4437,
      "鏡": 4438,
      "鐘": 4439,
      "鐵": 4440,
      "鑽": 4441,
      "鑿": 4442,
      "针": 4443,
      "钓": 4444,
      "钱": 4445,
      "钻": 4446,
      "铃": 4447,
      "铅": 4448,
      "铜": 4449,
      "银": 4450,
      "铺": 4451,
      "链": 4452,
      "销": 4453,
      "锅": 4454,
      "锡": 4455,
      "锯": 4456,
      "镇": 4457,
      "镜": 4458,
      "镯": 4459,
      "長": 4460,
      "长": 4461,
      "門": 4462,
      "閉": 4463,
      "開": 4464,
      "間": 4465,
      "関": 4466,
      "闇": 4467,
      "闘": 4468,
      "關": 4469,
      "门": 4470,
      "问": 4471,
      "间": 4472,
      "闹": 4473,
      "闻": 4474,
      "阅": 4475,
      "队": 4476,
      "阪": 4477,
      "阯": 4478,
      "防": 4479,
      "阳": 4480,
      "阶": 4481,
      "阻": 4482,
      "阿": 4483,
      "际": 4484,
      "陈": 4485,
      "降": 4486,
      "限": 4487,
      "院": 4488,
      "陳": 4489,
      "陶": 4490,
      "陸": 4491,
      "険": 4492,
      "陽": 4493,
      "隆": 4494,
      "隊": 4495,
      "階": 4496,
      "随": 4497,
      "隐": 4498,
      "隔": 4499,
      "隙": 4500,
      "際": 4501,
      "障": 4502,
      "隠": 4503,
      "隣": 4504,
      "隶": 4505,
      "隽": 4506,
      "雀": 4507,
      "雄": 4508,
      "集": 4509,
      "雇": 4510,
      "雌": 4511,
      "雕": 4512,
      "雛": 4513,
      "離": 4514,
      "難": 4515,
      "雨": 4516,
      "雪": 4517,
      "雲": 4518,
      "雷": 4519,
      "雹": 4520,
      "電": 4521,
      "需": 4522,
      "震": 4523,
      "霊": 4524,
      "霜": 4525,
      "霞": 4526,
      "露": 4527,
      "靄": 4528,
      "青": 4529,
      "静": 4530,
      "靜": 4531,
      "非": 4532,
      "面": 4533,
      "革": 4534,
      "靴": 4535,
      "鞄": 4536,
      "鞘": 4537,
      "韓": 4538,
      "音": 4539,
      "響": 4540,
      "頁": 4541,
      "頂": 4542,
      "頃": 4543,
      "順": 4544,
      "預": 4545,
      "領": 4546,
      "頬": 4547,
      "頭": 4548,
      "頷": 4549,
      "頸": 4550,
      "頻": 4551,
      "頼": 4552,
      "題": 4553,
      "額": 4554,
      "顎": 4555,
      "顔": 4556,
      "類": 4557,
      "页": 4558,
      "顶": 4559,
      "顷": 4560,
      "项": 4561,
      "顺": 4562,
      "须": 4563,
      "顿": 4564,
      "预": 4565,
      "领": 4566,
      "颈": 4567,
      "频": 4568,
      "题": 4569,
      "颜": 4570,
      "额": 4571,
      "風": 4572,
      "风": 4573,
      "食": 4574,
      "飢": 4575,
      "飯": 4576,
      "飲": 4577,
      "飽": 4578,
      "養": 4579,
      "餐": 4580,
      "館": 4581,
      "饪": 4582,
      "饭": 4583,
      "饮": 4584,
      "饰": 4585,
      "饺": 4586,
      "饿": 4587,
      "馆": 4588,
      "首": 4589,
      "香": 4590,
      "馬": 4591,
      "駄": 4592,
      "駅": 4593,
      "駆": 4594,
      "駝": 4595,
      "験": 4596,
      "騙": 4597,
      "驗": 4598,
      "驚": 4599,
      "马": 4600,
      "驼": 4601,
      "骆": 4602,
      "验": 4603,
      "骨": 4604,
      "骼": 4605,
      "體": 4606,
      "高": 4607,
      "髭": 4608,
      "鬘": 4609,
      "鬣": 4610,
      "鬼": 4611,
      "魂": 4612,
      "魔": 4613,
      "魚": 4614,
      "鮮": 4615,
      "鯊": 4616,
      "鰯": 4617,
      "鰻": 4618,
      "鱗": 4619,
      "鱼": 4620,
      "鲁": 4621,
      "鲜": 4622,
      "鲨": 4623,
      "鳄": 4624,
      "鳞": 4625,
      "鳥": 4626,
      "鳩": 4627,
      "鴨": 4628,
      "鶏": 4629,
      "鶴": 4630,
      "鷗": 4631,
      "鷲": 4632,
      "鷹": 4633,
      "鸟": 4634,
      "鸡": 4635,
      "鹅": 4636,
      "鹷": 4637,
      "鹸": 4638,
      "鹼": 4639,
      "鹿": 4640,
      "麓": 4641,
      "麦": 4642,
      "麪": 4643,
      "麵": 4644,
      "麺": 4645,
      "麻": 4646,
      "麼": 4647,
      "黃": 4648,
      "黄": 4649,
      "黎": 4650,
      "黑": 4651,
      "黒": 4652,
      "黙": 4653,
      "鼓": 4654,
      "鼠": 4655,
      "鼬": 4656,
      "鼻": 4657,
      "齒": 4658,
      "齢": 4659,
      "齿": 4660,
      "龍": 4661,
      "龙": 4662,
      "龜": 4663,
      "ꁯ": 4664,
      "ꎡ": 4665,
      "ꎲ": 4666,
      "ꎹ": 4667,
      "ꙁ": 4668,
      "Ꙃ": 4669,
      "ꙑ": 4670,
      "ꙗ": 4671,
      "ꨀ": 4672,
      "ꨁ": 4673,
      "ꨅ": 4674,
      "ꨓ": 4675,
      "ꨟ": 4676,
      "ꨣ": 4677,
      "ꨤ": 4678,
      "ꨮ": 4679,
      "ꨯ": 4680,
      "ꨳ": 4681,
      "가": 4682,
      "각": 4683,
      "간": 4684,
      "갈": 4685,
      "감": 4686,
      "갑": 4687,
      "갓": 4688,
      "강": 4689,
      "개": 4690,
      "객": 4691,
      "갠": 4692,
      "거": 4693,
      "걸": 4694,
      "검": 4695,
      "것": 4696,
      "게": 4697,
      "겨": 4698,
      "격": 4699,
      "결": 4700,
      "경": 4701,
      "계": 4702,
      "고": 4703,
      "곤": 4704,
      "골": 4705,
      "곰": 4706,
      "공": 4707,
      "과": 4708,
      "관": 4709,
      "광": 4710,
      "교": 4711,
      "구": 4712,
      "국": 4713,
      "군": 4714,
      "궐": 4715,
      "귀": 4716,
      "균": 4717,
      "그": 4718,
      "극": 4719,
      "근": 4720,
      "금": 4721,
      "기": 4722,
      "길": 4723,
      "까": 4724,
      "깐": 4725,
      "깜": 4726,
      "깨": 4727,
      "께": 4728,
      "껫": 4729,
      "꼽": 4730,
      "꾸": 4731,
      "끼": 4732,
      "나": 4733,
      "낙": 4734,
      "낚": 4735,
      "난": 4736,
      "날": 4737,
      "남": 4738,
      "낱": 4739,
      "내": 4740,
      "냈": 4741,
      "냥": 4742,
      "너": 4743,
      "널": 4744,
      "네": 4745,
      "녀": 4746,
      "년": 4747,
      "녕": 4748,
      "노": 4749,
      "논": 4750,
      "놈": 4751,
      "농": 4752,
      "뇌": 4753,
      "누": 4754,
      "눈": 4755,
      "뉴": 4756,
      "느": 4757,
      "늑": 4758,
      "는": 4759,
      "늘": 4760,
      "능": 4761,
      "니": 4762,
      "닝": 4763,
      "다": 4764,
      "단": 4765,
      "달": 4766,
      "닭": 4767,
      "당": 4768,
      "대": 4769,
      "댄": 4770,
      "더": 4771,
      "덜": 4772,
      "데": 4773,
      "덴": 4774,
      "도": 4775,
      "독": 4776,
      "돈": 4777,
      "돌": 4778,
      "동": 4779,
      "돼": 4780,
      "되": 4781,
      "된": 4782,
      "될": 4783,
      "됩": 4784,
      "두": 4785,
      "둥": 4786,
      "드": 4787,
      "든": 4788,
      "등": 4789,
      "디": 4790,
      "딘": 4791,
      "딩": 4792,
      "따": 4793,
      "딴": 4794,
      "딸": 4795,
      "땅": 4796,
      "때": 4797,
      "또": 4798,
      "뚜": 4799,
      "뜨": 4800,
      "라": 4801,
      "락": 4802,
      "란": 4803,
      "람": 4804,
      "랍": 4805,
      "랑": 4806,
      "래": 4807,
      "랙": 4808,
      "램": 4809,
      "량": 4810,
      "러": 4811,
      "럽": 4812,
      "렁": 4813,
      "레": 4814,
      "렛": 4815,
      "력": 4816,
      "련": 4817,
      "로": 4818,
      "론": 4819,
      "료": 4820,
      "룡": 4821,
      "루": 4822,
      "룩": 4823,
      "룬": 4824,
      "룰": 4825,
      "류": 4826,
      "륙": 4827,
      "르": 4828,
      "를": 4829,
      "름": 4830,
      "릎": 4831,
      "리": 4832,
      "린": 4833,
      "립": 4834,
      "릿": 4835,
      "링": 4836,
      "마": 4837,
      "막": 4838,
      "만": 4839,
      "많": 4840,
      "말": 4841,
      "망": 4842,
      "맞": 4843,
      "매": 4844,
      "맥": 4845,
      "머": 4846,
      "메": 4847,
      "멕": 4848,
      "멧": 4849,
      "며": 4850,
      "면": 4851,
      "멸": 4852,
      "명": 4853,
      "모": 4854,
      "목": 4855,
      "몬": 4856,
      "몰": 4857,
      "무": 4858,
      "문": 4859,
      "물": 4860,
      "뭐": 4861,
      "므": 4862,
      "믕": 4863,
      "미": 4864,
      "민": 4865,
      "밀": 4866,
      "밍": 4867,
      "및": 4868,
      "바": 4869,
      "박": 4870,
      "반": 4871,
      "발": 4872,
      "밥": 4873,
      "밧": 4874,
      "방": 4875,
      "배": 4876,
      "백": 4877,
      "뱀": 4878,
      "버": 4879,
      "번": 4880,
      "벌": 4881,
      "법": 4882,
      "베": 4883,
      "벤": 4884,
      "벨": 4885,
      "벼": 4886,
      "벽": 4887,
      "변": 4888,
      "보": 4889,
      "복": 4890,
      "본": 4891,
      "볼": 4892,
      "봄": 4893,
      "봇": 4894,
      "봉": 4895,
      "부": 4896,
      "북": 4897,
      "분": 4898,
      "불": 4899,
      "붕": 4900,
      "브": 4901,
      "븐": 4902,
      "블": 4903,
      "비": 4904,
      "빅": 4905,
      "빈": 4906,
      "빌": 4907,
      "빛": 4908,
      "빠": 4909,
      "빡": 4910,
      "빵": 4911,
      "빼": 4912,
      "뻰": 4913,
      "뼈": 4914,
      "뽁": 4915,
      "뿔": 4916,
      "쁠": 4917,
      "사": 4918,
      "산": 4919,
      "살": 4920,
      "삼": 4921,
      "상": 4922,
      "새": 4923,
      "색": 4924,
      "생": 4925,
      "샤": 4926,
      "서": 4927,
      "석": 4928,
      "선": 4929,
      "설": 4930,
      "섬": 4931,
      "섭": 4932,
      "성": 4933,
      "세": 4934,
      "셈": 4935,
      "셋": 4936,
      "셔": 4937,
      "소": 4938,
      "속": 4939,
      "손": 4940,
      "솜": 4941,
      "송": 4942,
      "쇠": 4943,
      "수": 4944,
      "숙": 4945,
      "순": 4946,
      "술": 4947,
      "숭": 4948,
      "숯": 4949,
      "쉬": 4950,
      "스": 4951,
      "슬": 4952,
      "슴": 4953,
      "습": 4954,
      "시": 4955,
      "식": 4956,
      "신": 4957,
      "실": 4958,
      "심": 4959,
      "십": 4960,
      "싱": 4961,
      "싸": 4962,
      "쌋": 4963,
      "쌍": 4964,
      "써": 4965,
      "썸": 4966,
      "썻": 4967,
      "쏜": 4968,
      "쏭": 4969,
      "쑤": 4970,
      "쓰": 4971,
      "쓴": 4972,
      "씨": 4973,
      "씻": 4974,
      "아": 4975,
      "악": 4976,
      "안": 4977,
      "암": 4978,
      "앗": 4979,
      "앙": 4980,
      "애": 4981,
      "액": 4982,
      "앵": 4983,
      "약": 4984,
      "양": 4985,
      "어": 4986,
      "억": 4987,
      "언": 4988,
      "얼": 4989,
      "업": 4990,
      "었": 4991,
      "에": 4992,
      "엔": 4993,
      "여": 4994,
      "역": 4995,
      "연": 4996,
      "열": 4997,
      "염": 4998,
      "영": 4999,
      "오": 5000,
      "옥": 5001,
      "온": 5002,
      "올": 5003,
      "옴": 5004,
      "옹": 5005,
      "와": 5006,
      "왐": 5007,
      "왕": 5008,
      "외": 5009,
      "요": 5010,
      "용": 5011,
      "우": 5012,
      "운": 5013,
      "울": 5014,
      "욿": 5015,
      "원": 5016,
      "월": 5017,
      "웨": 5018,
      "웫": 5019,
      "웱": 5020,
      "웳": 5021,
      "위": 5022,
      "윌": 5023,
      "유": 5024,
      "육": 5025,
      "율": 5026,
      "으": 5027,
      "은": 5028,
      "을": 5029,
      "음": 5030,
      "응": 5031,
      "의": 5032,
      "이": 5033,
      "익": 5034,
      "인": 5035,
      "일": 5036,
      "입": 5037,
      "있": 5038,
      "잎": 5039,
      "자": 5040,
      "작": 5041,
      "잔": 5042,
      "잘": 5043,
      "장": 5044,
      "재": 5045,
      "쟁": 5046,
      "저": 5047,
      "적": 5048,
      "전": 5049,
      "점": 5050,
      "젓": 5051,
      "정": 5052,
      "젖": 5053,
      "제": 5054,
      "조": 5055,
      "존": 5056,
      "종": 5057,
      "죄": 5058,
      "주": 5059,
      "준": 5060,
      "줄": 5061,
      "중": 5062,
      "쥐": 5063,
      "즈": 5064,
      "증": 5065,
      "지": 5066,
      "직": 5067,
      "진": 5068,
      "집": 5069,
      "짚": 5070,
      "짜": 5071,
      "짠": 5072,
      "쫀": 5073,
      "찟": 5074,
      "차": 5075,
      "찰": 5076,
      "참": 5077,
      "창": 5078,
      "책": 5079,
      "척": 5080,
      "천": 5081,
      "철": 5082,
      "청": 5083,
      "체": 5084,
      "초": 5085,
      "총": 5086,
      "추": 5087,
      "축": 5088,
      "출": 5089,
      "충": 5090,
      "츠": 5091,
      "층": 5092,
      "치": 5093,
      "침": 5094,
      "카": 5095,
      "칼": 5096,
      "캄": 5097,
      "캐": 5098,
      "캑": 5099,
      "커": 5100,
      "컨": 5101,
      "컴": 5102,
      "케": 5103,
      "코": 5104,
      "콩": 5105,
      "콷": 5106,
      "쾀": 5107,
      "쿰": 5108,
      "퀴": 5109,
      "크": 5110,
      "큰": 5111,
      "클": 5112,
      "키": 5113,
      "킬": 5114,
      "타": 5115,
      "탁": 5116,
      "탄": 5117,
      "탓": 5118,
      "탕": 5119,
      "태": 5120,
      "택": 5121,
      "터": 5122,
      "턴": 5123,
      "테": 5124,
      "텔": 5125,
      "템": 5126,
      "텟": 5127,
      "토": 5128,
      "톱": 5129,
      "통": 5130,
      "투": 5131,
      "툭": 5132,
      "트": 5133,
      "특": 5134,
      "튼": 5135,
      "티": 5136,
      "팅": 5137,
      "파": 5138,
      "판": 5139,
      "팔": 5140,
      "팝": 5141,
      "팟": 5142,
      "패": 5143,
      "퍼": 5144,
      "페": 5145,
      "펜": 5146,
      "평": 5147,
      "포": 5148,
      "폭": 5149,
      "폰": 5150,
      "폴": 5151,
      "퐁": 5152,
      "표": 5153,
      "푸": 5154,
      "품": 5155,
      "풋": 5156,
      "풍": 5157,
      "퓨": 5158,
      "프": 5159,
      "픈": 5160,
      "플": 5161,
      "픔": 5162,
      "피": 5163,
      "핀": 5164,
      "필": 5165,
      "하": 5166,
      "학": 5167,
      "한": 5168,
      "할": 5169,
      "함": 5170,
      "합": 5171,
      "항": 5172,
      "해": 5173,
      "행": 5174,
      "허": 5175,
      "헌": 5176,
      "험": 5177,
      "헝": 5178,
      "헬": 5179,
      "혀": 5180,
      "혁": 5181,
      "혈": 5182,
      "협": 5183,
      "형": 5184,
      "호": 5185,
      "홍": 5186,
      "화": 5187,
      "확": 5188,
      "환": 5189,
      "활": 5190,
      "회": 5191,
      "후": 5192,
      "훈": 5193,
      "훼": 5194,
      "휘": 5195,
      "휴": 5196,
      "흐": 5197,
      "흙": 5198,
      "히": 5199,
      "힌": 5200,
      "": 5201,
      "": 5202,
      "": 5203,
      "": 5204,
      "": 5205,
      "": 5206,
      "": 5207,
      "": 5208,
      "": 5209,
      "": 5210,
      "": 5211,
      "": 5212,
      "": 5213,
      "": 5214,
      "": 5215,
      "": 5216,
      "": 5217,
      "": 5218,
      "": 5219,
      "": 5220,
      "": 5221,
      "": 5222,
      "": 5223,
      "": 5224,
      "": 5225,
      "": 5226,
      "": 5227,
      "": 5228,
      "": 5229,
      "": 5230,
      "": 5231,
      "": 5232,
      "": 5233,
      "": 5234,
      "": 5235,
      "": 5236,
      "": 5237,
      "": 5238,
      "": 5239,
      "": 5240,
      "": 5241,
      "": 5242,
      "": 5243,
      "": 5244,
      "": 5245,
      "": 5246,
      "": 5247,
      "": 5248,
      "": 5249,
      "": 5250,
      "": 5251,
      "": 5252,
      "": 5253,
      "": 5254,
      "": 5255,
      "": 5256,
      "": 5257,
      "": 5258,
      "": 5259,
      "": 5260,
      "": 5261,
      "": 5262,
      "": 5263,
      "": 5264,
      "": 5265,
      "": 5266,
      "": 5267,
      "": 5268,
      "": 5269,
      "": 5270,
      "": 5271,
      "": 5272,
      "": 5273,
      "": 5274,
      "": 5275,
      "": 5276,
      "": 5277,
      "": 5278,
      "": 5279,
      "": 5280,
      "": 5281,
      "": 5282,
      "": 5283,
      "": 5284,
      "": 5285,
      "": 5286,
      "": 5287,
      "": 5288,
      "": 5289,
      "": 5290,
      "": 5291,
      "": 5292,
      "": 5293,
      "": 5294,
      "": 5295,
      "": 5296,
      "": 5297,
      "": 5298,
      "": 5299,
      "": 5300,
      "": 5301,
      "": 5302,
      "": 5303,
      "": 5304,
      "": 5305,
      "": 5306,
      "": 5307,
      "": 5308,
      "": 5309,
      "": 5310,
      "": 5311,
      "": 5312,
      "": 5313,
      "": 5314,
      "": 5315,
      "": 5316,
      "": 5317,
      "": 5318,
      "": 5319,
      "": 5320,
      "": 5321,
      "": 5322,
      "": 5323,
      "": 5324,
      "": 5325,
      "": 5326,
      "": 5327,
      "": 5328,
      "": 5329,
      "": 5330,
      "": 5331,
      "": 5332,
      "": 5333,
      "": 5334,
      "": 5335,
      "": 5336,
      "": 5337,
      "": 5338,
      "": 5339,
      "": 5340,
      "": 5341,
      "": 5342,
      "": 5343,
      "": 5344,
      "": 5345,
      "": 5346,
      "": 5347,
      "": 5348,
      "李": 5349,
      "ﬁ": 5350,
      "﷼": 5351,
      "︎": 5352,
      "️": 5353,
      "﹎": 5354,
      "﻿": 5355,
      "！": 5356,
      "＆": 5357,
      "（": 5358,
      "）": 5359,
      "＊": 5360,
      "＋": 5361,
      "，": 5362,
      "－": 5363,
      "．": 5364,
      "／": 5365,
      "０": 5366,
      "１": 5367,
      "２": 5368,
      "３": 5369,
      "４": 5370,
      "５": 5371,
      "６": 5372,
      "７": 5373,
      "８": 5374,
      "９": 5375,
      "：": 5376,
      "；": 5377,
      "＜": 5378,
      "＞": 5379,
      "？": 5380,
      "Ａ": 5381,
      "Ｂ": 5382,
      "Ｃ": 5383,
      "Ｄ": 5384,
      "Ｅ": 5385,
      "Ｆ": 5386,
      "Ｈ": 5387,
      "Ｉ": 5388,
      "Ｌ": 5389,
      "Ｍ": 5390,
      "Ｎ": 5391,
      "Ｏ": 5392,
      "Ｐ": 5393,
      "Ｒ": 5394,
      "Ｓ": 5395,
      "Ｔ": 5396,
      "Ｕ": 5397,
      "Ｘ": 5398,
      "Ｙ": 5399,
      "＼": 5400,
      "ａ": 5401,
      "ｂ": 5402,
      "ｃ": 5403,
      "ｅ": 5404,
      "ｇ": 5405,
      "ｉ": 5406,
      "ｋ": 5407,
      "ｌ": 5408,
      "ｍ": 5409,
      "ｎ": 5410,
      "ｏ": 5411,
      "ｒ": 5412,
      "ｓ": 5413,
      "ｔ": 5414,
      "ｕ": 5415,
      "ｗ": 5416,
      "ｙ": 5417,
      "｜": 5418,
      "～": 5419,
      "｡": 5420,
      "･": 5421,
      "ｨ": 5422,
      "ｪ": 5423,
      "ｰ": 5424,
      "ｱ": 5425,
      "ｲ": 5426,
      "ｳ": 5427,
      "ｻ": 5428,
      "ｼ": 5429,
      "ﾀ": 5430,
      "ﾃ": 5431,
      "ﾆ": 5432,
      "ﾊ": 5433,
      "ﾏ": 5434,
      "ﾗ": 5435,
      "ﾘ": 5436,
      "ﾝ": 5437,
      "ﾞ": 5438,
      "￥": 5439,
      "￼": 5440,
      "�": 5441,
      "𝓓": 5442,
      "𝓚": 5443,
      "𝓣": 5444,
      "𝓪": 5445,
      "𝓰": 5446,
      "𝓱": 5447,
      "𝓷": 5448,
      "𝓸": 5449,
      "𝓻": 5450,
      "𝓾": 5451,
      "🅰": 5452,
      "🅱": 5453,
      "🅲": 5454,
      "🅳": 5455,
      "🅷": 5456,
      "🅸": 5457,
      "🅺": 5458,
      "🅾": 5459,
      "🅿": 5460,
      "🆁": 5461,
      "🆃": 5462,
      "🆈": 5463,
      "🆓": 5464,
      "🆕": 5465,
      "🇦": 5466,
      "🇧": 5467,
      "🇨": 5468,
      "🇪": 5469,
      "🇬": 5470,
      "🇭": 5471,
      "🇮": 5472,
      "🇯": 5473,
      "🇰": 5474,
      "🇱": 5475,
      "🇲": 5476,
      "🇳": 5477,
      "🇴": 5478,
      "🇵": 5479,
      "🇷": 5480,
      "🇸": 5481,
      "🇹": 5482,
      "🇺": 5483,
      "🇻": 5484,
      "🇾": 5485,
      "🇿": 5486,
      "🌀": 5487,
      "🌃": 5488,
      "🌄": 5489,
      "🌆": 5490,
      "🌈": 5491,
      "🌍": 5492,
      "🌑": 5493,
      "🌞": 5494,
      "🌟": 5495,
      "🌤": 5496,
      "🌬": 5497,
      "🌱": 5498,
      "🌷": 5499,
      "🌸": 5500,
      "🌹": 5501,
      "🌺": 5502,
      "🌻": 5503,
      "🌼": 5504,
      "🌾": 5505,
      "🌿": 5506,
      "🍀": 5507,
      "🍂": 5508,
      "🍃": 5509,
      "🍄": 5510,
      "🍉": 5511,
      "🍎": 5512,
      "🍑": 5513,
      "🍒": 5514,
      "🍓": 5515,
      "🍔": 5516,
      "🍖": 5517,
      "🍗": 5518,
      "🍜": 5519,
      "🍝": 5520,
      "🍞": 5521,
      "🍡": 5522,
      "🍢": 5523,
      "🍦": 5524,
      "🍩": 5525,
      "🍪": 5526,
      "🍮": 5527,
      "🍴": 5528,
      "🍵": 5529,
      "🍶": 5530,
      "🍻": 5531,
      "🍼": 5532,
      "🎀": 5533,
      "🎁": 5534,
      "🎂": 5535,
      "🎄": 5536,
      "🎆": 5537,
      "🎈": 5538,
      "🎉": 5539,
      "🎊": 5540,
      "🎒": 5541,
      "🎗": 5542,
      "🎙": 5543,
      "🎠": 5544,
      "🎡": 5545,
      "🎤": 5546,
      "🎧": 5547,
      "🎩": 5548,
      "🎬": 5549,
      "🎰": 5550,
      "🎶": 5551,
      "🎼": 5552,
      "🏅": 5553,
      "🏆": 5554,
      "🏎": 5555,
      "🏔": 5556,
      "🏕": 5557,
      "🏖": 5558,
      "🏘": 5559,
      "🏢": 5560,
      "🏩": 5561,
      "🏻": 5562,
      "🏼": 5563,
      "🏽": 5564,
      "🏿": 5565,
      "🐉": 5566,
      "🐍": 5567,
      "🐒": 5568,
      "🐔": 5569,
      "🐗": 5570,
      "🐘": 5571,
      "🐝": 5572,
      "🐟": 5573,
      "🐠": 5574,
      "🐡": 5575,
      "🐢": 5576,
      "🐣": 5577,
      "🐤": 5578,
      "🐮": 5579,
      "🐲": 5580,
      "🐳": 5581,
      "🐴": 5582,
      "🐷": 5583,
      "🐹": 5584,
      "👀": 5585,
      "👁": 5586,
      "👆": 5587,
      "👇": 5588,
      "👈": 5589,
      "👉": 5590,
      "👊": 5591,
      "👋": 5592,
      "👌": 5593,
      "👍": 5594,
      "👏": 5595,
      "👑": 5596,
      "👒": 5597,
      "👓": 5598,
      "👕": 5599,
      "👗": 5600,
      "👛": 5601,
      "👟": 5602,
      "👣": 5603,
      "👥": 5604,
      "👦": 5605,
      "👧": 5606,
      "👨": 5607,
      "👩": 5608,
      "👪": 5609,
      "👫": 5610,
      "👮": 5611,
      "👯": 5612,
      "👴": 5613,
      "👵": 5614,
      "👸": 5615,
      "👼": 5616,
      "👿": 5617,
      "💁": 5618,
      "💃": 5619,
      "💄": 5620,
      "💈": 5621,
      "💋": 5622,
      "💌": 5623,
      "💍": 5624,
      "💎": 5625,
      "💐": 5626,
      "💑": 5627,
      "💓": 5628,
      "💔": 5629,
      "💕": 5630,
      "💖": 5631,
      "💗": 5632,
      "💘": 5633,
      "💙": 5634,
      "💚": 5635,
      "💛": 5636,
      "💜": 5637,
      "💝": 5638,
      "💞": 5639,
      "💟": 5640,
      "💡": 5641,
      "💢": 5642,
      "💤": 5643,
      "💥": 5644,
      "💦": 5645,
      "💨": 5646,
      "💪": 5647,
      "💬": 5648,
      "💯": 5649,
      "💰": 5650,
      "💳": 5651,
      "💴": 5652,
      "💵": 5653,
      "💸": 5654,
      "💹": 5655,
      "💻": 5656,
      "💼": 5657,
      "📈": 5658,
      "📌": 5659,
      "📍": 5660,
      "📖": 5661,
      "📚": 5662,
      "📝": 5663,
      "📞": 5664,
      "📢": 5665,
      "📣": 5666,
      "📥": 5667,
      "📦": 5668,
      "📫": 5669,
      "📱": 5670,
      "📲": 5671,
      "📳": 5672,
      "📶": 5673,
      "📷": 5674,
      "📸": 5675,
      "🔅": 5676,
      "🔆": 5677,
      "🔊": 5678,
      "🔋": 5679,
      "🔌": 5680,
      "🔍": 5681,
      "🔎": 5682,
      "🔔": 5683,
      "🔥": 5684,
      "🔧": 5685,
      "🔱": 5686,
      "🔴": 5687,
      "🔶": 5688,
      "🔷": 5689,
      "🔺": 5690,
      "🔻": 5691,
      "🕰": 5692,
      "🕵": 5693,
      "🕶": 5694,
      "🖖": 5695,
      "🖤": 5696,
      "🗞": 5697,
      "🗣": 5698,
      "🗨": 5699,
      "🗯": 5700,
      "😀": 5701,
      "😁": 5702,
      "😂": 5703,
      "😃": 5704,
      "😄": 5705,
      "😅": 5706,
      "😆": 5707,
      "😇": 5708,
      "😈": 5709,
      "😉": 5710,
      "😊": 5711,
      "😋": 5712,
      "😌": 5713,
      "😍": 5714,
      "😎": 5715,
      "😏": 5716,
      "😐": 5717,
      "😑": 5718,
      "😒": 5719,
      "😓": 5720,
      "😕": 5721,
      "😗": 5722,
      "😘": 5723,
      "😙": 5724,
      "😚": 5725,
      "😛": 5726,
      "😜": 5727,
      "😝": 5728,
      "😠": 5729,
      "😡": 5730,
      "😢": 5731,
      "😣": 5732,
      "😤": 5733,
      "😥": 5734,
      "😦": 5735,
      "😩": 5736,
      "😪": 5737,
      "😬": 5738,
      "😭": 5739,
      "😮": 5740,
      "😯": 5741,
      "😱": 5742,
      "😲": 5743,
      "😳": 5744,
      "😴": 5745,
      "😹": 5746,
      "🙁": 5747,
      "🙂": 5748,
      "🙄": 5749,
      "🙅": 5750,
      "🙆": 5751,
      "🙈": 5752,
      "🙉": 5753,
      "🙊": 5754,
      "🙋": 5755,
      "🙌": 5756,
      "🙎": 5757,
      "🙏": 5758,
      "🚀": 5759,
      "🚌": 5760,
      "🚑": 5761,
      "🚒": 5762,
      "🚗": 5763,
      "🚘": 5764,
      "🚙": 5765,
      "🚚": 5766,
      "🚨": 5767,
      "🚩": 5768,
      "🚶": 5769,
      "🚷": 5770,
      "🚺": 5771,
      "🛌": 5772,
      "🛑": 5773,
      "🛒": 5774,
      "🛣": 5775,
      "🛤": 5776,
      "🛩": 5777,
      "🛵": 5778,
      "🤑": 5779,
      "🤒": 5780,
      "🤓": 5781,
      "🤔": 5782,
      "🤗": 5783,
      "🤘": 5784,
      "🤙": 5785,
      "🤝": 5786,
      "🤣": 5787,
      "🤤": 5788,
      "🤦": 5789,
      "🤩": 5790,
      "🤪": 5791,
      "🤫": 5792,
      "🤬": 5793,
      "🤰": 5794,
      "🥇": 5795,
      "🥈": 5796,
      "🥉": 5797,
      "🥊": 5798,
      "🥓": 5799,
      "🥕": 5800,
      "🥖": 5801,
      "🥗": 5802,
      "🥘": 5803,
      "🥠": 5804,
      "🥥": 5805,
      "🥦": 5806,
      "🥩": 5807,
      "🥰": 5808,
      "🥶": 5809,
      "🦄": 5810,
      "🦈": 5811,
      "🦋": 5812,
      "🧀": 5813,
      "🧐": 5814,
      "🧖": 5815,
      "🧝": 5816,
      "🧡": 5817,
      "🧢": 5818,
      "𤘅": 5819,
      "􀅗": 5820,
      "􀆭": 5821,
      "􏰀": 5822,
      "􏰁": 5823,
      "􏰂": 5824,
      "􏰃": 5825,
      "􏰄": 5826,
      "ng": 5827,
      "nh": 5828,
      "ch": 5829,
      "th": 5830,
      "tr": 5831,
      "kh": 5832,
      "ph": 5833,
      "ông": 5834,
      "ານ": 5835,
      "ên": 5836,
      "iệ": 5837,
      "qu": 5838,
      "và": 5839,
      "gi": 5840,
      "an": 5841,
      "ườ": 5842,
      "iế": 5843,
      "ác": 5844,
      "ại": 5845,
      "uy": 5846,
      "ân": 5847,
      "củ": 5848,
      "ັນ": 5849,
      "của": 5850,
      "ượ": 5851,
      "ອງ": 5852,
      "ການ": 5853,
      "ới": 5854,
      "Th": 5855,
      "ong": 5856,
      "là": 5857,
      "ày": 5858,
      "iề": 5859,
      "đã": 5860,
      "ình": 5861,
      "có": 5862,
      "iên": 5863,
      "ười": 5864,
      "່າ": 5865,
      "ທີ": 5866,
      "iện": 5867,
      "ລະ": 5868,
      "Tr": 5869,
      "các": 5870,
      "người": 5871,
      "ột": 5872,
      "Ng": 5873,
      "້າ": 5874,
      "ất": 5875,
      "cho": 5876,
      "ướ": 5877,
      "ược": 5878,
      "ai": 5879,
      "ັດ": 5880,
      "ັບ": 5881,
      "ang": 5882,
      "iều": 5883,
      "được": 5884,
      "ay": 5885,
      "ທີ່": 5886,
      "một": 5887,
      "trong": 5888,
      "ành": 5889,
      "không": 5890,
      "anh": 5891,
      "ường": 5892,
      "inh": 5893,
      "ra": 5894,
      "ປະ": 5895,
      "ận": 5896,
      "bị": 5897,
      "ực": 5898,
      "iể": 5899,
      "ốc": 5900,
      "ối": 5901,
      "າມ": 5902,
      "ước": 5903,
      "với": 5904,
      "át": 5905,
      "ải": 5906,
      "ức": 5907,
      "áo": 5908,
      "ươ": 5909,
      "in": 5910,
      "ội": 5911,
      "ung": 5912,
      "ương": 5913,
      "ần": 5914,
      "າຍ": 5915,
      "ດ້": 5916,
      "່ງ": 5917,
      "ແລະ": 5918,
      "án": 5919,
      "ໃນ": 5920,
      "ສະ": 5921,
      "tại": 5922,
      "am": 5923,
      "ến": 5924,
      "iến": 5925,
      "ຂອງ": 5926,
      "20": 5927,
      "ngh": 5928,
      "này": 5929,
      "ết": 5930,
      "Qu": 5931,
      "ồng": 5932,
      "ản": 5933,
      "ao": 5934,
      "đị": 5935,
      "Ph": 5936,
      "công": 5937,
      "້ນ": 5938,
      "àn": 5939,
      "ây": 5940,
      "ầu": 5941,
      "ống": 5942,
      "eo": 5943,
      "Ch": 5944,
      "để": 5945,
      "ົນ": 5946,
      "ິດ": 5947,
      "àng": 5948,
      "au": 5949,
      "về": 5950,
      "đó": 5951,
      "າດ": 5952,
      "ài": 5953,
      "khi": 5954,
      "quan": 5955,
      "iệc": 5956,
      "ອນ": 5957,
      "iết": 5958,
      "on": 5959,
      "ật": 5960,
      "ໄດ້": 5961,
      "ính": 5962,
      "ộc": 5963,
      "vào": 5964,
      "vụ": 5965,
      "ື່": 5966,
      "nă": 5967,
      "ượng": 5968,
      "trên": 5969,
      "quy": 5970,
      "ùng": 5971,
      "ັກ": 5972,
      "việc": 5973,
      "ັງ": 5974,
      "ho": 5975,
      "ững": 5976,
      "đến": 5977,
      "ạn": 5978,
      "ໍ່": 5979,
      "່ານ": 5980,
      "từ": 5981,
      "ngày": 5982,
      "ăn": 5983,
      "hiện": 5984,
      "ách": 5985,
      "như": 5986,
      "ộng": 5987,
      "ời": 5988,
      "ຫຼ": 5989,
      "ập": 5990,
      "າກ": 5991,
      "Nh": 5992,
      "ục": 5993,
      "thu": 5994,
      "ເປ": 5995,
      "nhân": 5996,
      "ơn": 5997,
      "định": 5998,
      "ái": 5999,
      "ໃຫ": 6000,
      "những": 6001,
      "ມີ": 6002,
      "ũng": 6003,
      "hành": 6004,
      "sự": 6005,
      "ວ່າ": 6006,
      "xe": 6007,
      "nhà": 6008,
      "đồng": 6009,
      "00": 6010,
      "ạm": 6011,
      "ấn": 6012,
      "ạt": 6013,
      "đối": 6014,
      "201": 6015,
      "làm": 6016,
      "ưa": 6017,
      "áng": 6018,
      "ລາ": 6019,
      "ôi": 6020,
      "cả": 6021,
      "Quốc": 6022,
      "số": 6023,
      "ເປັນ": 6024,
      "tin": 6025,
      "nước": 6026,
      "tra": 6027,
      "ົ້າ": 6028,
      "biết": 6029,
      "iểm": 6030,
      "òng": 6031,
      "uyên": 6032,
      "ổi": 6033,
      "ấy": 6034,
      "າງ": 6035,
      "đang": 6036,
      "do": 6037,
      "່ວ": 6038,
      "ໃຫ້": 6039,
      "ảng": 6040,
      "ằng": 6041,
      "ຄວ": 6042,
      "áy": 6043,
      "iệt": 6044,
      "điều": 6045,
      "ắt": 6046,
      "áp": 6047,
      "năm": 6048,
      "động": 6049,
      "Công": 6050,
      "ທ່ານ": 6051,
      "uộc": 6052,
      "gia": 6053,
      "êu": 6054,
      "ấp": 6055,
      "cũng": 6056,
      "Mỹ": 6057,
      "ễn": 6058,
      "ền": 6059,
      "ia": 6060,
      "hàng": 6061,
      "thể": 6062,
      "ảo": 6063,
      "Trung": 6064,
      "lại": 6065,
      "er": 6066,
      "່ນ": 6067,
      "sẽ": 6068,
      "chính": 6069,
      "cơ": 6070,
      "ánh": 6071,
      "iền": 6072,
      "chức": 6073,
      "dân": 6074,
      "ໍາ": 6075,
      "ວກ": 6076,
      "lu": 6077,
      "iệu": 6078,
      "thông": 6079,
      "họ": 6080,
      "nhiều": 6081,
      "ເຂ": 6082,
      "uyệ": 6083,
      "sau": 6084,
      "ະນ": 6085,
      "âm": 6086,
      "ເພ": 6087,
      "ẫn": 6088,
      "ີ້": 6089,
      "ຄວາມ": 6090,
      "ăng": 6091,
      "úng": 6092,
      "ເຮ": 6093,
      "nhận": 6094,
      "báo": 6095,
      "ົງ": 6096,
      "ົາ": 6097,
      "đầu": 6098,
      "phải": 6099,
      "uyện": 6100,
      "tiế": 6101,
      "ູ້": 6102,
      "tu": 6103,
      "ຈະ": 6104,
      "ỉnh": 6105,
      "đi": 6106,
      "ອກ": 6107,
      "ưở": 6108,
      "en": 6109,
      "iển": 6110,
      "ູ່": 6111,
      "phát": 6112,
      "ưởng": 6113,
      "kho": 6114,
      "ົດ": 6115,
      "ồi": 6116,
      "nó": 6117,
      "sát": 6118,
      "oàn": 6119,
      "vi": 6120,
      "thành": 6121,
      "ພາ": 6122,
      "lượng": 6123,
      "quân": 6124,
      "ạo": 6125,
      "chỉ": 6126,
      "lực": 6127,
      "ợp": 6128,
      "ar": 6129,
      "viên": 6130,
      "່າງ": 6131,
      "òn": 6132,
      "້ອງ": 6133,
      "ເລ": 6134,
      "ích": 6135,
      "giữ": 6136,
      "cuộc": 6137,
      "ເທ": 6138,
      "theo": 6139,
      "ັ້ນ": 6140,
      "ổng": 6141,
      "âu": 6142,
      "con": 6143,
      "lý": 6144,
      "òa": 6145,
      "đề": 6146,
      "Kh": 6147,
      "úc": 6148,
      "້ງ": 6149,
      "àu": 6150,
      "ửa": 6151,
      "Nga": 6152,
      "hợp": 6153,
      "ຸດ": 6154,
      "tỉnh": 6155,
      "oại": 6156,
      "ạng": 6157,
      "ເຊ": 6158,
      "ສາ": 6159,
      "Theo": 6160,
      "xã": 6161,
      "ແມ": 6162,
      "ື່ອ": 6163,
      "ắc": 6164,
      "cáo": 6165,
      "qua": 6166,
      "ິນ": 6167,
      "xu": 6168,
      "ບັນ": 6169,
      "máy": 6170,
      "TP": 6171,
      "phạm": 6172,
      "thời": 6173,
      "ວງ": 6174,
      "êm": 6175,
      "ກັບ": 6176,
      "ôn": 6177,
      "thì": 6178,
      "ịch": 6179,
      "ặt": 6180,
      "trường": 6181,
      "cùng": 6182,
      "ເມ": 6183,
      "ົມ": 6184,
      "bắt": 6185,
      "ứng": 6186,
      "đường": 6187,
      "ào": 6188,
      "..": 6189,
      "al": 6190,
      "ວຽ": 6191,
      "ລາວ": 6192,
      "chiến": 6193,
      "່ຽ": 6194,
      "khu": 6195,
      "bay": 6196,
      "tiền": 6197,
      "ám": 6198,
      "ມາ": 6199,
      "cứ": 6200,
      "ụng": 6201,
      "19": 6202,
      "nhưng": 6203,
      "Nguy": 6204,
      "Nam": 6205,
      "ບໍ່": 6206,
      "້ອ": 6207,
      "Nguyễn": 6208,
      "thống": 6209,
      "tình": 6210,
      "rằng": 6211,
      "iệm": 6212,
      "10": 6213,
      "phòng": 6214,
      "tiếp": 6215,
      "ຢູ່": 6216,
      "còn": 6217,
      "nói": 6218,
      "đưa": 6219,
      "thực": 6220,
      "ນີ້": 6221,
      "ວັນ": 6222,
      "trước": 6223,
      "ິງ": 6224,
      "cấp": 6225,
      "ອບ": 6226,
      "hình": 6227,
      "່າວ": 6228,
      "es": 6229,
      "ặc": 6230,
      "huyện": 6231,
      "ti": 6232,
      "hai": 6233,
      "ລັດ": 6234,
      "sản": 6235,
      "tài": 6236,
      "ົວ": 6237,
      "ừa": 6238,
      "di": 6239,
      "ảnh": 6240,
      "quyền": 6241,
      "ຫລ": 6242,
      "ເຈ": 6243,
      "Hà": 6244,
      "ເກ": 6245,
      "ơi": 6246,
      "pháp": 6247,
      "ົບ": 6248,
      "tượng": 6249,
      "quốc": 6250,
      "ພວກ": 6251,
      "tôi": 6252,
      "bố": 6253,
      "ເສ": 6254,
      "ảy": 6255,
      "lên": 6256,
      "tới": 6257,
      "bộ": 6258,
      "liên": 6259,
      "hơn": 6260,
      "tế": 6261,
      "ệnh": 6262,
      "Gi": 6263,
      "nên": 6264,
      "tàu": 6265,
      "ທະ": 6266,
      "chiế": 6267,
      "ຈາກ": 6268,
      "ງານ": 6269,
      "dụng": 6270,
      "ແມ່ນ": 6271,
      "bà": 6272,
      "xử": 6273,
      "nhất": 6274,
      "chủ": 6275,
      "mu": 6276,
      "ັ້ງ": 6277,
      "mà": 6278,
      "nạn": 6279,
      "Văn": 6280,
      "ຖະ": 6281,
      "quyết": 6282,
      "tuổi": 6283,
      "ິ່ງ": 6284,
      "tháng": 6285,
      "iệp": 6286,
      "mới": 6287,
      "ấu": 6288,
      "năng": 6289,
      "ດີ": 6290,
      "chuy": 6291,
      "ທາງ": 6292,
      "ເອ": 6293,
      "ອາ": 6294,
      "ຮັບ": 6295,
      "ເທດ": 6296,
      "em": 6297,
      "ໄປ": 6298,
      "cảnh": 6299,
      "ຜູ້": 6300,
      "ວິ": 6301,
      "Bộ": 6302,
      "địa": 6303,
      "khai": 6304,
      "ແຕ": 6305,
      "ຕໍ່": 6306,
      "iểu": 6307,
      "chị": 6308,
      "vì": 6309,
      "ty": 6310,
      "ạnh": 6311,
      "vực": 6312,
      "khác": 6313,
      "ສຳ": 6314,
      "dự": 6315,
      "ຄົນ": 6316,
      "giao": 6317,
      "kiểm": 6318,
      "thủ": 6319,
      "ọng": 6320,
      "đây": 6321,
      "Ho": 6322,
      "ຊາ": 6323,
      "Bình": 6324,
      "tội": 6325,
      "ກັນ": 6326,
      "ລິ": 6327,
      "lớ": 6328,
      "vẫn": 6329,
      "້າງ": 6330,
      "Tổng": 6331,
      "ພະ": 6332,
      "ເວ": 6333,
      "luật": 6334,
      "ốn": 6335,
      "ໂດ": 6336,
      "ầm": 6337,
      "ຽນ": 6338,
      "ເຂົ້າ": 6339,
      "trình": 6340,
      "ກະ": 6341,
      "thương": 6342,
      "Trong": 6343,
      "hệ": 6344,
      "tổ": 6345,
      "ướng": 6346,
      "lo": 6347,
      "bảo": 6348,
      "tên": 6349,
      "ົກ": 6350,
      "ຸກ": 6351,
      "ປີ": 6352,
      "tố": 6353,
      "as": 6354,
      "ẩm": 6355,
      "phương": 6356,
      "ắn": 6357,
      "An": 6358,
      "thấy": 6359,
      "xảy": 6360,
      "tự": 6361,
      "el": 6362,
      "gây": 6363,
      "12": 6364,
      "or": 6365,
      "đạo": 6366,
      "tác": 6367,
      "cầu": 6368,
      "ແຂ": 6369,
      "ND": 6370,
      "hội": 6371,
      "mình": 6372,
      "ọi": 6373,
      "sinh": 6374,
      "Việt": 6375,
      "ູນ": 6376,
      "trưởng": 6377,
      "11": 6378,
      "oài": 6379,
      "ồn": 6380,
      "óm": 6381,
      "xuất": 6382,
      "nghi": 6383,
      "xác": 6384,
      "toàn": 6385,
      "thế": 6386,
      "ລັບ": 6387,
      "óng": 6388,
      "kết": 6389,
      "óa": 6390,
      "nay": 6391,
      "tục": 6392,
      "ìm": 6393,
      "giới": 6394,
      "),": 6395,
      "bán": 6396,
      "nhiên": 6397,
      "đình": 6398,
      "ນະ": 6399,
      "đánh": 6400,
      "ຫາ": 6401,
      "ét": 6402,
      "ển": 6403,
      "cứu": 6404,
      "ເພື່ອ": 6405,
      "ກິດ": 6406,
      "nữ": 6407,
      "khách": 6408,
      "ເຈົ້າ": 6409,
      "gần": 6410,
      "ຕິ": 6411,
      "khoảng": 6412,
      "ằm": 6413,
      "ີນ": 6414,
      "điểm": 6415,
      "ếu": 6416,
      "chưa": 6417,
      "ta": 6418,
      "ừng": 6419,
      "bất": 6420,
      ").": 6421,
      "lớn": 6422,
      "cách": 6423,
      "cao": 6424,
      "Sau": 6425,
      "ໂດຍ": 6426,
      "ເຫ": 6427,
      "im": 6428,
      "ép": 6429,
      "ne": 6430,
      "nhiệm": 6431,
      "ບໍ": 6432,
      "triệu": 6433,
      "lã": 6434,
      "giải": 6435,
      "ດາ": 6436,
      "ນັ້ນ": 6437,
      "ຢ່າງ": 6438,
      "່ມ": 6439,
      "Nội": 6440,
      "ຊີ": 6441,
      "lập": 6442,
      "mặt": 6443,
      "ືອງ": 6444,
      "້ານ": 6445,
      "ລາຍ": 6446,
      "kinh": 6447,
      "ỏi": 6448,
      "le": 6449,
      "điện": 6450,
      "Thanh": 6451,
      "ສະຫ": 6452,
      "ban": 6453,
      "ăm": 6454,
      "phố": 6455,
      "ຕີ": 6456,
      "chuyển": 6457,
      "ເຮົາ": 6458,
      "ວນ": 6459,
      "truy": 6460,
      "Hải": 6461,
      "rất": 6462,
      "ເຄ": 6463,
      "tìm": 6464,
      "sử": 6465,
      "đội": 6466,
      "tham": 6467,
      "ôm": 6468,
      "Tuy": 6469,
      "thường": 6470,
      "is": 6471,
      "om": 6472,
      "ậu": 6473,
      "ແຕ່": 6474,
      "ảm": 6475,
      "Đông": 6476,
      "ຶ່ງ": 6477,
      "ປະເທດ": 6478,
      "ກ່ຽ": 6479,
      "bản": 6480,
      "phí": 6481,
      "đơn": 6482,
      "tử": 6483,
      "hi": 6484,
      "quả": 6485,
      "000": 6486,
      "bỏ": 6487,
      "Anh": 6488,
      "Thị": 6489,
      "rõ": 6490,
      "Ông": 6491,
      "ໜ້າ": 6492,
      "ẳng": 6493,
      "giá": 6494,
      "tiến": 6495,
      "học": 6496,
      "ởi": 6497,
      "sở": 6498,
      "mạng": 6499,
      "30": 6500,
      "ຸມ": 6501,
      "chiếc": 6502,
      "ເມືອງ": 6503,
      "chúng": 6504,
      "tấn": 6505,
      "ຕະ": 6506,
      "vị": 6507,
      "đất": 6508,
      "hoạt": 6509,
      "ເຮັດ": 6510,
      "lời": 6511,
      "nghị": 6512,
      "ພາບ": 6513,
      "thị": 6514,
      "đo": 6515,
      "viện": 6516,
      "ạch": 6517,
      "ủng": 6518,
      "hộ": 6519,
      "bên": 6520,
      "ຮ່ວ": 6521,
      "vấn": 6522,
      "lần": 6523,
      "giờ": 6524,
      "trọng": 6525,
      "áu": 6526,
      "khí": 6527,
      "biển": 6528,
      "li": 6529,
      "ວຍ": 6530,
      "ma": 6531,
      "ກຳ": 6532,
      "ẩn": 6533,
      "ắng": 6534,
      "iếu": 6535,
      "ັ່ງ": 6536,
      "ậy": 6537,
      "bu": 6538,
      "ລົງ": 6539,
      "ຮ່ວມ": 6540,
      "ຂໍ": 6541,
      "vừa": 6542,
      "ີດ": 6543,
      "chết": 6544,
      "ưng": 6545,
      "ເດ": 6546,
      "ຊ້": 6547,
      "phủ": 6548,
      "lửa": 6549,
      "ຖື": 6550,
      "ແລ": 6551,
      "ສ້າງ": 6552,
      "ຕັ້ງ": 6553,
      "ມື": 6554,
      "ກ່າວ": 6555,
      "tâm": 6556,
      "ສາມ": 6557,
      "lãnh": 6558,
      "khiến": 6559,
      "bằng": 6560,
      "ຊາດ": 6561,
      "tranh": 6562,
      "tăng": 6563,
      "trị": 6564,
      "quận": 6565,
      "út": 6566,
      "200": 6567,
      "ນາມ": 6568,
      "tuyên": 6569,
      "ະນະ": 6570,
      "nào": 6571,
      "ຽງ": 6572,
      "yêu": 6573,
      "hay": 6574,
      "thanh": 6575,
      "້ວ": 6576,
      "ພັນ": 6577,
      "nhóm": 6578,
      "15": 6579,
      "vệ": 6580,
      "ທິ": 6581,
      "mua": 6582,
      "thuộc": 6583,
      "giữa": 6584,
      "ọc": 6585,
      "Thủ": 6586,
      "ກໍ": 6587,
      "thi": 6588,
      "tòa": 6589,
      "ngoài": 6590,
      "gian": 6591,
      "ຕາມ": 6592,
      "ແນ": 6593,
      "ໃຈ": 6594,
      "ໃຊ້": 6595,
      "minh": 6596,
      "ợi": 6597,
      "tập": 6598,
      "so": 6599,
      "chứng": 6600,
      "nghiệp": 6601,
      "...": 6602,
      "đại": 6603,
      "phạt": 6604,
      "ເນ": 6605,
      "chống": 6606,
      "ຕ່າງ": 6607,
      "trả": 6608,
      "ro": 6609,
      "ຊົນ": 6610,
      "ລັດຖະ": 6611,
      "ເບ": 6612,
      "Ngày": 6613,
      "xét": 6614,
      "chế": 6615,
      "tú": 6616,
      "ຫຼາຍ": 6617,
      "ແຂວງ": 6618,
      "ạc": 6619,
      "rai": 6620,
      "Ảnh": 6621,
      "tiêu": 6622,
      "ạy": 6623,
      "cháy": 6624,
      "ແຫ": 6625,
      "bệnh": 6626,
      "ອອກ": 6627,
      "ຸນ": 6628,
      "ທັງ": 6629,
      "ຶ້ນ": 6630,
      "nguyên": 6631,
      "ອດ": 6632,
      "ຶກ": 6633,
      "ĩnh": 6634,
      "້ມ": 6635,
      "ຂຶ້ນ": 6636,
      "dẫn": 6637,
      "quá": 6638,
      "ໂລ": 6639,
      "ຍາ": 6640,
      "cần": 6641,
      "ri": 6642,
      "ວຽດ": 6643,
      "ອີ": 6644,
      "dùng": 6645,
      "biểu": 6646,
      "phần": 6647,
      "tích": 6648,
      "vũ": 6649,
      "độ": 6650,
      "hiệu": 6651,
      "Nhật": 6652,
      "Một": 6653,
      "sơ": 6654,
      "ຍັງ": 6655,
      "diễn": 6656,
      "ຫວຽດ": 6657,
      "ສຸດ": 6658,
      "ະນາ": 6659,
      "ສໍາ": 6660,
      "phường": 6661,
      "Các": 6662,
      "Đức": 6663,
      "tịch": 6664,
      "Uk": 6665,
      "Sơn": 6666,
      "ົ່ງ": 6667,
      "rồi": 6668,
      "to": 6669,
      "ບໍລິ": 6670,
      "ຂ່າວ": 6671,
      "ແກ": 6672,
      "Ukrai": 6673,
      "tay": 6674,
      "ກອງ": 6675,
      "luận": 6676,
      "ỗi": 6677,
      "sĩ": 6678,
      "ບັນດາ": 6679,
      "ວີ": 6680,
      "vợ": 6681,
      "່ວນ": 6682,
      "ưu": 6683,
      "bàn": 6684,
      "ຕ້ອງ": 6685,
      "phép": 6686,
      "nơi": 6687,
      "ຈັດ": 6688,
      "trở": 6689,
      "hại": 6690,
      "ຄື": 6691,
      "dư": 6692,
      "Bắc": 6693,
      "lúc": 6694,
      "mang": 6695,
      "thức": 6696,
      "Sy": 6697,
      "ຂະ": 6698,
      "ຫນ": 6699,
      "phía": 6700,
      "ỏa": 6701,
      "ພິ": 6702,
      "tướng": 6703,
      "ື່ອງ": 6704,
      "Trước": 6705,
      "co": 6706,
      "HC": 6707,
      "tính": 6708,
      "tư": 6709,
      "Liên": 6710,
      "mất": 6711,
      "ວກັບ": 6712,
      "us": 6713,
      "ິກ": 6714,
      "ໂອ": 6715,
      "ria": 6716,
      "hôm": 6717,
      "trú": 6718,
      "ົ້ນ": 6719,
      "đảo": 6720,
      "doanh": 6721,
      "ter": 6722,
      "gọi": 6723,
      "ເຖ": 6724,
      "ແຫ່ງ": 6725,
      "uồn": 6726,
      "sống": 6727,
      "Syria": 6728,
      "tù": 6729,
      "os": 6730,
      "ຖານ": 6731,
      "ຮຽນ": 6732,
      "cố": 6733,
      "ad": 6734,
      "ຫວຽດນາມ": 6735,
      "ດ້ວຍ": 6736,
      "trang": 6737,
      "hóa": 6738,
      "chạy": 6739,
      "đổi": 6740,
      "cửa": 6741,
      "້ອມ": 6742,
      "ໄລ": 6743,
      "thân": 6744,
      "triển": 6745,
      "ສາມາດ": 6746,
      "ແບ": 6747,
      "ຜົນ": 6748,
      "ວດ": 6749,
      "sáng": 6750,
      "phụ": 6751,
      "້ອຍ": 6752,
      "ບັດ": 6753,
      "nhằm": 6754,
      "ký": 6755,
      "diện": 6756,
      "ພວກເຮົາ": 6757,
      "trung": 6758,
      "Ukraine": 6759,
      "mạnh": 6760,
      "ມະ": 6761,
      "bình": 6762,
      "gái": 6763,
      "ặng": 6764,
      "ຕິດ": 6765,
      "ຖືກ": 6766,
      "ặp": 6767,
      "trách": 6768,
      "đều": 6769,
      "khó": 6770,
      "HCM": 6771,
      "SN": 6772,
      "16": 6773,
      "cá": 6774,
      "nhập": 6775,
      "Dương": 6776,
      "UB": 6777,
      "thêm": 6778,
      "cu": 6779,
      "chất": 6780,
      "ກ່ຽວກັບ": 6781,
      "Minh": 6782,
      "ນັກ": 6783,
      "loại": 6784,
      "đốc": 6785,
      "Thái": 6786,
      "đoàn": 6787,
      "ຫຼື": 6788,
      "ເຖິງ": 6789,
      "et": 6790,
      "xuống": 6791,
      "ນາ": 6792,
      "trái": 6793,
      "່າຍ": 6794,
      "ninh": 6795,
      "khủng": 6796,
      "ຮງ": 6797,
      "ຊຸມ": 6798,
      "ໂຄ": 6799,
      "Chủ": 6800,
      "Đại": 6801,
      "ສົ່ງ": 6802,
      "ắp": 6803,
      "cô": 6804,
      "trợ": 6805,
      "ran": 6806,
      "Trần": 6807,
      "14": 6808,
      "túy": 6809,
      "ຈຳ": 6810,
      "chí": 6811,
      "ກໍ່": 6812,
      "la": 6813,
      "chi": 6814,
      "ba": 6815,
      "ສ່ວນ": 6816,
      "tỷ": 6817,
      "ທານ": 6818,
      "UBND": 6819,
      "lấy": 6820,
      "່ອນ": 6821,
      "nhau": 6822,
      "ັດທ": 6823,
      "thứ": 6824,
      "vận": 6825,
      "chấp": 6826,
      "giáo": 6827,
      "ấm": 6828,
      "\".": 6829,
      "ຫານ": 6830,
      "cử": 6831,
      "17": 6832,
      "ມັນ": 6833,
      "Tu": 6834,
      "chồng": 6835,
      "ປະຊາ": 6836,
      "phản": 6837,
      "gì": 6838,
      "pp": 6839,
      "trạng": 6840,
      "Hoàng": 6841,
      "ທຳ": 6842,
      "tiếng": 6843,
      "18": 6844,
      "2018": 6845,
      "ືອນ": 6846,
      "ສານ": 6847,
      "ẩu": 6848,
      "ເງ": 6849,
      "Lê": 6850,
      "ãi": 6851,
      "Cảnh": 6852,
      "niên": 6853,
      "bạn": 6854,
      "ủy": 6855,
      "vậy": 6856,
      "tổng": 6857,
      "ພັກ": 6858,
      "່ວຍ": 6859,
      "kiến": 6860,
      "bé": 6861,
      "thiết": 6862,
      "13": 6863,
      "ສຳລັບ": 6864,
      "Bản": 6865,
      "າະ": 6866,
      "Tiên": 6867,
      "hoặc": 6868,
      "trực": 6869,
      "cư": 6870,
      "kế": 6871,
      "can": 6872,
      "thiệt": 6873,
      "ແລ້ວ": 6874,
      "đấu": 6875,
      "Tây": 6876,
      "dịch": 6877,
      "Khi": 6878,
      "ຕາ": 6879,
      "ốt": 6880,
      "vật": 6881,
      "bao": 6882,
      "hồ": 6883,
      "cháu": 6884,
      "ສູ": 6885,
      "súng": 6886,
      "nếu": 6887,
      "ດ້ານ": 6888,
      "ປະຕິ": 6889,
      "ຕົວ": 6890,
      "ເສດ": 6891,
      "​​": 6892,
      "ແດ": 6893,
      "ເຕ": 6894,
      "thẩm": 6895,
      "gặp": 6896,
      "vùng": 6897,
      "kiện": 6898,
      "Người": 6899,
      "quản": 6900,
      "ວິທະ": 6901,
      "ọn": 6902,
      "ວຽກ": 6903,
      "ໃນການ": 6904,
      "buộc": 6905,
      "2017": 6906,
      "nổ": 6907,
      "phẩm": 6908,
      "ປະກ": 6909,
      "biên": 6910,
      "tuần": 6911,
      "ເຂດ": 6912,
      "Tân": 6913,
      "Thành": 6914,
      "hoàn": 6915,
      "Triều": 6916,
      "ເກມ": 6917,
      "Hòa": 6918,
      "ໝາຍ": 6919,
      "Nhà": 6920,
      "lợi": 6921,
      "liệu": 6922,
      "gh": 6923,
      "ປະທານ": 6924,
      "ồm": 6925,
      "25": 6926,
      "tạo": 6927,
      "ເຫັນ": 6928,
      "ຮູ້": 6929,
      "ໄຊ": 6930,
      "sách": 6931,
      "ບານ": 6932,
      "Chính": 6933,
      "tuy": 6934,
      "kể": 6935,
      "ຍ່": 6936,
      "tạm": 6937,
      "Phòng": 6938,
      "ຜ່ານ": 6939,
      "Phó": 6940,
      "້າຍ": 6941,
      "ngay": 6942,
      "ພາກ": 6943,
      "sức": 6944,
      "giám": 6945,
      "biệt": 6946,
      "từng": 6947,
      "oo": 6948,
      "Quảng": 6949,
      "Tại": 6950,
      "mẹ": 6951,
      "Lu": 6952,
      "chuyên": 6953,
      "căn": 6954,
      "khỏi": 6955,
      "gồm": 6956,
      "nghiêm": 6957,
      "phục": 6958,
      "ຄຳ": 6959,
      "ắm": 6960,
      "ນຳ": 6961,
      "24": 6962,
      "trẻ": 6963,
      "ື້ນ": 6964,
      "ửi": 6965,
      "đặc": 6966,
      "úp": 6967,
      "ດັ່ງ": 6968,
      "nguồn": 6969,
      "ແຜ": 6970,
      "chu": 6971,
      "ປະຊຸມ": 6972,
      "Hiện": 6973,
      "xem": 6974,
      "dựng": 6975,
      "US": 6976,
      "ແບບ": 6977,
      "ຄອນ": 6978,
      "nội": 6979,
      "Long": 6980,
      "ed": 6981,
      "CS": 6982,
      "phá": 6983,
      "ອົງ": 6984,
      "muốn": 6985,
      "vong": 6986,
      "ướp": 6987,
      "ື່ອນ": 6988,
      "văn": 6989,
      "ລັງ": 6990,
      "thoại": 6991,
      "tan": 6992,
      "iếm": 6993,
      "ເຂົາ": 6994,
      "ສີ": 6995,
      "chung": 6996,
      "ak": 6997,
      "ໃຫຍ່": 6998,
      "cán": 6999,
      "bắn": 7000,
      "id": 7001,
      "ສະຫະ": 7002,
      "Xu": 7003,
      "mở": 7004,
      "IS": 7005,
      "ít": 7006,
      "phóng": 7007,
      "ີ່ມ": 7008,
      "hồi": 7009,
      "tải": 7010,
      "ກາ": 7011,
      "ຫົວ": 7012,
      "khởi": 7013,
      "Đồng": 7014,
      "un": 7015,
      "hết": 7016,
      "50": 7017,
      "truyền": 7018,
      "óc": 7019,
      "ຫວ": 7020,
      "ữa": 7021,
      "ĩa": 7022,
      "tai": 7023,
      "ຄົມ": 7024,
      "ck": 7025,
      "ຄະນະ": 7026,
      "châu": 7027,
      "ໃສ": 7028,
      "tiên": 7029,
      "Pháp": 7030,
      "2016": 7031,
      "sang": 7032,
      "ເອົາ": 7033,
      "khẳng": 7034,
      "ìn": 7035,
      "Cơ": 7036,
      "phiên": 7037,
      "cướp": 7038,
      "ຄັ້ງ": 7039,
      "danh": 7040,
      "ộm": 7041,
      "giả": 7042,
      "ສູງ": 7043,
      "giấy": 7044,
      "đoạn": 7045,
      "khả": 7046,
      "ké": 7047,
      "xây": 7048,
      "Thu": 7049,
      "ທຸກ": 7050,
      "đặt": 7051,
      "ອີກ": 7052,
      "ໃດ": 7053,
      "quán": 7054,
      "Phi": 7055,
      "ứa": 7056,
      "àm": 7057,
      "ເບິ່ງ": 7058,
      "at": 7059,
      "ສັດ": 7060,
      "Ban": 7061,
      "ຍຸ": 7062,
      "giúp": 7063,
      "ມົນ": 7064,
      "ກົດ": 7065,
      "ໄດ້ຮັບ": 7066,
      "ຄ້າ": 7067,
      "Xuân": 7068,
      "hoảng": 7069,
      "ເງິນ": 7070,
      "đàn": 7071,
      "chiếm": 7072,
      "ing": 7073,
      "ວິດ": 7074,
      "chia": 7075,
      "ໄວ": 7076,
      "ສິ່ງ": 7077,
      "gửi": 7078,
      "ສົມ": 7079,
      "khẩu": 7080,
      "ເວລາ": 7081,
      "ວັນທີ": 7082,
      "ngờ": 7083,
      "hạn": 7084,
      "22": 7085,
      "ສໍາລັບ": 7086,
      "dài": 7087,
      "nam": 7088,
      "ngoại": 7089,
      "່ອງ": 7090,
      "binh": 7091,
      "ພັດທ": 7092,
      "lộ": 7093,
      "mọi": 7094,
      "hoạch": 7095,
      "hòa": 7096,
      "ຕ້": 7097,
      "Ba": 7098,
      "ມານ": 7099,
      "mức": 7100,
      "xin": 7101,
      "phối": 7102,
      "tô": 7103,
      "sư": 7104,
      "soát": 7105,
      "Phú": 7106,
      "đóng": 7107,
      "tối": 7108,
      "ື່ນ": 7109,
      "mục": 7110,
      "ຂ້າ": 7111,
      "dù": 7112,
      "ຈີນ": 7113,
      "Hội": 7114,
      "Ngh": 7115,
      "ຸ່ມ": 7116,
      "ປະຊາຊົນ": 7117,
      "hỏi": 7118,
      "Hàn": 7119,
      "chuyện": 7120,
      "lệnh": 7121,
      "ໂນ": 7122,
      "thuận": 7123,
      "ãng": 7124,
      "ການສ": 7125,
      "nằm": 7126,
      "ົ່ວ": 7127,
      "Hu": 7128,
      "ຈັນ": 7129,
      "biến": 7130,
      "ບ້ານ": 7131,
      "đứng": 7132,
      "hải": 7133,
      "ເລື": 7134,
      "2015": 7135,
      "ວ່າງ": 7136,
      "il": 7137,
      "ວມ": 7138,
      "ພັດທະນາ": 7139,
      "nhanh": 7140,
      "ọa": 7141,
      "trộm": 7142,
      "21": 7143,
      "trai": 7144,
      "ພ້ອມ": 7145,
      "cung": 7146,
      "ຂໍ້": 7147,
      "Ngọc": 7148,
      "VN": 7149,
      "ຍິງ": 7150,
      "ạp": 7151,
      "ົ່າ": 7152,
      "dưới": 7153,
      "đúng": 7154,
      "ir": 7155,
      "ama": 7156,
      "đảm": 7157,
      "ທີ່ມີ": 7158,
      "ບົດ": 7159,
      "ຍະ": 7160,
      "hạt": 7161,
      "USD": 7162,
      "đủ": 7163,
      "23": 7164,
      "Những": 7165,
      "Giang": 7166,
      "thay": 7167,
      "ຕົ້ນ": 7168,
      "TT": 7169,
      "cuối": 7170,
      "Do": 7171,
      "ຊວງ": 7172,
      "ພາຍ": 7173,
      "su": 7174,
      "ໂອເອ": 7175,
      "Lan": 7176,
      "nguy": 7177,
      "ວີໂອເອ": 7178,
      "du": 7179,
      "kỳ": 7180,
      "chở": 7181,
      "ລາຍການ": 7182,
      "ືອ": 7183,
      "Li": 7184,
      "ສັງ": 7185,
      "ຂອງທ່ານ": 7186,
      "Điều": 7187,
      "đăng": 7188,
      "Kỳ": 7189,
      "tức": 7190,
      "ໂລກ": 7191,
      "ປະຕິບັດ": 7192,
      "phân": 7193,
      "ະລ": 7194,
      "tờ": 7195,
      "thuốc": 7196,
      "hướng": 7197,
      "ín": 7198,
      "ữu": 7199,
      "ສະໜ": 7200,
      "khoản": 7201,
      "sân": 7202,
      "chiều": 7203,
      "ton": 7204,
      "hưởng": 7205,
      "hỗ": 7206,
      "ຫມ": 7207,
      "ພາສາ": 7208,
      "199": 7209,
      "ew": 7210,
      "giết": 7211,
      "ຊ່ວຍ": 7212,
      "ກວ່າ": 7213,
      "trí": 7214,
      "In": 7215,
      "ສອງ": 7216,
      "nghiệm": 7217,
      "ລະບ": 7218,
      "ນະຄອນ": 7219,
      "ມົນຕີ": 7220,
      "tất": 7221,
      "Phạm": 7222,
      "ູບ": 7223,
      "it": 7224,
      "ce": 7225,
      "ầy": 7226,
      "Ninh": 7227,
      "ສັນ": 7228,
      "26": 7229,
      "ີຍ": 7230,
      "ສິດ": 7231,
      "ຫວ່າງ": 7232,
      "lịch": 7233,
      "ly": 7234,
      "tiết": 7235,
      "ຽມ": 7236,
      "ຫຍ": 7237,
      "ອັນ": 7238,
      "Ngoại": 7239,
      "sai": 7240,
      "giảm": 7241,
      "kích": 7242,
      "ຶກສາ": 7243,
      "Iran": 7244,
      "ູກ": 7245,
      "nặng": 7246,
      "ຮັກ": 7247,
      "ໂທ": 7248,
      "ໃສ່": 7249,
      "Không": 7250,
      "ວີໂອເອລາວ": 7251,
      "lao": 7252,
      "kẻ": 7253,
      "ລັດຖະມົນຕີ": 7254,
      "ແທ": 7255,
      "đô": 7256,
      "ngân": 7257,
      "chuyến": 7258,
      "ặn": 7259,
      "kéo": 7260,
      "ກະຊວງ": 7261,
      "Sở": 7262,
      "ໃໝ": 7263,
      "Âu": 7264,
      "họp": 7265,
      "ສາດ": 7266,
      "ື້ອ": 7267,
      "êng": 7268,
      "lái": 7269,
      "ko": 7270,
      "huy": 7271,
      "້ຳ": 7272,
      "ງການ": 7273,
      "ຮອງ": 7274,
      "ຫຼວງ": 7275,
      "tho": 7276,
      "đổ": 7277,
      "cầm": 7278,
      "ກອງປະຊຸມ": 7279,
      "Kim": 7280,
      "Giám": 7281,
      "phán": 7282,
      "100": 7283,
      "TA": 7284,
      "ແດງ": 7285,
      "kiếm": 7286,
      "miền": 7287,
      "cái": 7288,
      "dọa": 7289,
      "ໄຂ": 7290,
      "and": 7291,
      "Cục": 7292,
      "ev": 7293,
      "đu": 7294,
      "trận": 7295,
      "ghi": 7296,
      "GT": 7297,
      "bom": 7298,
      "ượt": 7299,
      "ậm": 7300,
      "chữa": 7301,
      "ໃໝ່": 7302,
      "Hồi": 7303,
      "ໄຟ": 7304,
      "28": 7305,
      "ທີ່ຈະ": 7306,
      "27": 7307,
      "ວັດ": 7308,
      "ĐT": 7309,
      "Vụ": 7310,
      "đông": 7311,
      "ສະພາ": 7312,
      "cường": 7313,
      "ແຮງ": 7314,
      "ເມື່ອ": 7315,
      "ຮູບ": 7316,
      "nổi": 7317,
      "biện": 7318,
      "giam": 7319,
      "thư": 7320,
      "Vi": 7321,
      "29": 7322,
      "ຄາ": 7323,
      "thăm": 7324,
      "ựu": 7325,
      "Châu": 7326,
      "hiểm": 7327,
      "cổ": 7328,
      "Su": 7329,
      "cảm": 7330,
      "ວາງ": 7331,
      "bác": 7332,
      "ເຊິ່ງ": 7333,
      "ກ່ຽວ": 7334,
      "ຕອນ": 7335,
      "ເພາະ": 7336,
      "TN": 7337,
      "ngụ": 7338,
      "bởi": 7339,
      "nữa": 7340,
      "ກິ": 7341,
      "ລົດ": 7342,
      "ກາງ": 7343,
      "198": 7344,
      "Bà": 7345,
      "nhỏ": 7346,
      "ເດືອນ": 7347,
      "ຄອງ": 7348,
      "ຣະ": 7349,
      "Luật": 7350,
      "ỡng": 7351,
      "đạn": 7352,
      "đêm": 7353,
      "chuẩn": 7354,
      "ຕ່າງໆ": 7355,
      "ສິນ": 7356,
      "Tôi": 7357,
      "ເພີ່ມ": 7358,
      "ັ່ນ": 7359,
      "thỏa": 7360,
      "CC": 7361,
      "cụ": 7362,
      "Quang": 7363,
      "đồ": 7364,
      "kêu": 7365,
      "bầu": 7366,
      "Ob": 7367,
      "ລີ": 7368,
      "uyền": 7369,
      "Hồ": 7370,
      "chịu": 7371,
      "ຊີວິດ": 7372,
      "\",": 7373,
      "Đến": 7374,
      "Ngoài": 7375,
      "tá": 7376,
      "đá": 7377,
      "ines": 7378,
      "hậu": 7379,
      "ຜະລ": 7380,
      "ịnh": 7381,
      "ຄັນ": 7382,
      "ຜະລິດ": 7383,
      "òi": 7384,
      "ທຸ": 7385,
      "Hồng": 7386,
      "tương": 7387,
      "ອັງ": 7388,
      "ວຽງ": 7389,
      "່ຽນ": 7390,
      "Tuấn": 7391,
      "Từ": 7392,
      "xế": 7393,
      "Vũ": 7394,
      "cực": 7395,
      "đe": 7396,
      "ຕົກ": 7397,
      "2014": 7398,
      "ຄໍາ": 7399,
      "dao": 7400,
      "Obama": 7401,
      "ແຜນ": 7402,
      "ໄພ": 7403,
      "່ຽວ": 7404,
      "cộng": 7405,
      "ດັບ": 7406,
      "đột": 7407,
      "ເຄື່ອງ": 7408,
      "Hai": 7409,
      "ém": 7410,
      "ລະຫວ່າງ": 7411,
      "ປຸ": 7412,
      "ເກີດ": 7413,
      "dấu": 7414,
      "ຶນ": 7415,
      "ພື້ນ": 7416,
      "ເຫດ": 7417,
      "ຫລາຍ": 7418,
      "ນາງ": 7419,
      "đâm": 7420,
      "nợ": 7421,
      "ຄະ": 7422,
      "Ấn": 7423,
      "ອື່ນ": 7424,
      "tiện": 7425,
      "ịp": 7426,
      "Chúng": 7427,
      "ou": 7428,
      "rộng": 7429,
      "Chi": 7430,
      "vô": 7431,
      "mối": 7432,
      "ເຮັດໃຫ້": 7433,
      "ປາ": 7434,
      "đa": 7435,
      "Độ": 7436,
      "Trường": 7437,
      "ເໜ": 7438,
      "thôn": 7439,
      "ùi": 7440,
      "đàm": 7441,
      "Mai": 7442,
      "ປ່ຽນ": 7443,
      "khám": 7444,
      "ngăn": 7445,
      "ສິ": 7446,
      "ວິທະຍຸ": 7447,
      "phi": 7448,
      "KS": 7449,
      "40": 7450,
      "ẩy": 7451,
      "Hoa": 7452,
      "Is": 7453,
      "trốn": 7454,
      "ສື": 7455,
      "ທຶນ": 7456,
      "re": 7457,
      "thuê": 7458,
      "ືນ": 7459,
      "Đà": 7460,
      "sao": 7461,
      "ໂຕ": 7462,
      "AT": 7463,
      "dung": 7464,
      "xung": 7465,
      "ອມ": 7466,
      "tang": 7467,
      "Kinh": 7468,
      "ອຍ": 7469,
      "rơi": 7470,
      "Như": 7471,
      "trấn": 7472,
      "si": 7473,
      "trụ": 7474,
      "rừng": 7475,
      "ອົງການ": 7476,
      "ກໍາ": 7477,
      "ປົກ": 7478,
      "ຽບ": 7479,
      "cây": 7480,
      "oan": 7481,
      "ພະຍ": 7482,
      "ີມ": 7483,
      "ເສຍ": 7484,
      "chặn": 7485,
      "đáng": 7486,
      "ສະຫະລັດ": 7487,
      "ເຕີ": 7488,
      "Đây": 7489,
      "vàng": 7490,
      "Pu": 7491,
      "CA": 7492,
      "TAND": 7493,
      "ດັ່ງກ່າວ": 7494,
      "ແມ່": 7495,
      "ol": 7496,
      "ngành": 7497,
      "ຫ້ອງ": 7498,
      "hạ": 7499,
      "ຖ້າ": 7500,
      "ສູນ": 7501,
      "Phương": 7502,
      "ພຽງ": 7503,
      "New": 7504,
      "ື່ມ": 7505,
      "ຄ່າ": 7506,
      "thiếu": 7507,
      "ເລືອກ": 7508,
      "ແກ່": 7509,
      "ອ່ານ": 7510,
      "ເຊຍ": 7511,
      "Biển": 7512,
      "yếu": 7513,
      "thẳng": 7514,
      "ທົ່ວ": 7515,
      "bài": 7516,
      "Yên": 7517,
      "ອາດ": 7518,
      "nghĩa": 7519,
      "ນາຍ": 7520,
      "hu": 7521,
      "ລະກິດ": 7522,
      "mỗi": 7523,
      "gó": 7524,
      "iếp": 7525,
      "dây": 7526,
      "ມີຄວາມ": 7527,
      "kỷ": 7528,
      "Hùng": 7529,
      "ສຽງ": 7530,
      "Re": 7531,
      "ຕົນ": 7532,
      "Phát": 7533,
      "ຊາວ": 7534,
      "Thông": 7535,
      "ເປີດ": 7536,
      "ລັດຖະບານ": 7537,
      "cục": 7538,
      "lưu": 7539,
      "ເສດຖະ": 7540,
      "ອຸ": 7541,
      "Nguyên": 7542,
      "ລາຍການວິທະຍຸ": 7543,
      "ຂາ": 7544,
      "cạnh": 7545,
      "ຜິດ": 7546,
      "ຫຼັງ": 7547,
      "ບາງ": 7548,
      "້ອນ": 7549,
      "hủy": 7550,
      "độc": 7551,
      "rút": 7552,
      "ngầm": 7553,
      "đảng": 7554,
      "ứt": 7555,
      "HĐ": 7556,
      "ເຊື່ອ": 7557,
      "ໄມ": 7558,
      "hãng": 7559,
      "ຢູ່ໃນ": 7560,
      "ເອກ": 7561,
      "ຊາຍ": 7562,
      "thoát": 7563,
      "ap": 7564,
      "istan": 7565,
      "ເວົ້າ": 7566,
      "Nhưng": 7567,
      "ຄິດ": 7568,
      "tuyến": 7569,
      "chân": 7570,
      "dầu": 7571,
      "tinh": 7572,
      "chơi": 7573,
      "ນໍາ": 7574,
      "ຈຸ": 7575,
      "ອັງກິດ": 7576,
      "càng": 7577,
      "mại": 7578,
      "ພົບ": 7579,
      "ເຂົ້າຮ່ວມ": 7580,
      "tốt": 7581,
      "ເສດຖະກິດ": 7582,
      "vốn": 7583,
      "ru": 7584,
      "ນິ": 7585,
      "chỗ": 7586,
      "da": 7587,
      "ໂຮງ": 7588,
      "bang": 7589,
      "ລູກ": 7590,
      "nghe": 7591,
      "PV": 7592,
      "thúc": 7593,
      "km": 7594,
      "ປ້ອງ": 7595,
      "ຫະ": 7596,
      "ຊຶ່ງ": 7597,
      "Hưng": 7598,
      "ບໍລິສັດ": 7599,
      "ແປ": 7600,
      "câu": 7601,
      "cấm": 7602,
      "cam": 7603,
      "ໂຄງການ": 7604,
      "ãn": 7605,
      "lĩnh": 7606,
      "kê": 7607,
      "ຂໍ້ມ": 7608,
      "ນ້ອຍ": 7609,
      "ພຣະ": 7610,
      "ສປ": 7611,
      "đạt": 7612,
      "ອະ": 7613,
      "buôn": 7614,
      "ຂໍ້ມູນ": 7615,
      "Hóa": 7616,
      "ca": 7617,
      "phút": 7618,
      "Phili": 7619,
      "vài": 7620,
      "bức": 7621,
      "And": 7622,
      "La": 7623,
      "ທຸລະກິດ": 7624,
      "sk": 7625,
      "ຂ້າພະ": 7626,
      "Gia": 7627,
      "tỏ": 7628,
      "va": 7629,
      "Quân": 7630,
      "Báo": 7631,
      "thảo": 7632,
      "khăn": 7633,
      "thần": 7634,
      "thuật": 7635,
      "ປະກອບ": 7636,
      "ẵng": 7637,
      "/.": 7638,
      "lòng": 7639,
      "OS": 7640,
      "uyết": 7641,
      "Ngay": 7642,
      "cha": 7643,
      "ອັດ": 7644,
      "2013": 7645,
      "ເຜ": 7646,
      "khẩn": 7647,
      "Nếu": 7648,
      "đoạt": 7649,
      "khoa": 7650,
      "ນີ": 7651,
      "60": 7652,
      "ນ້ຳ": 7653,
      "Nẵng": 7654,
      "xa": 7655,
      "ນວນ": 7656,
      "quần": 7657,
      "ha": 7658,
      "ທີ່ສຸດ": 7659,
      "ya": 7660,
      "ຈັດຕັ້ງ": 7661,
      "bạc": 7662,
      "ແນວ": 7663,
      "quanh": 7664,
      "cựu": 7665,
      "Philipp": 7666,
      "đẩy": 7667,
      "chóng": 7668,
      "ທັນ": 7669,
      "thừa": 7670,
      "Putin": 7671,
      "xúc": 7672,
      "ngôn": 7673,
      "197": 7674,
      "hữu": 7675,
      "Lực": 7676,
      "loạt": 7677,
      "ເດັກ": 7678,
      "ຫນ້າ": 7679,
      "ແໜ": 7680,
      "gle": 7681,
      "lệ": 7682,
      "hiểu": 7683,
      "ລວມ": 7684,
      "ໃຕ້": 7685,
      "Mal": 7686,
      "quay": 7687,
      "đầy": 7688,
      "500": 7689,
      "Có": 7690,
      "cánh": 7691,
      "ໍານ": 7692,
      "te": 7693,
      "ທ່ຽວ": 7694,
      "ẫu": 7695,
      "ິ່ນ": 7696,
      "ni": 7697,
      "./.": 7698,
      "ngồi": 7699,
      "ື້": 7700,
      "ແຫ່ງຊາດ": 7701,
      "Philippines": 7702,
      "ບຸກ": 7703,
      "chục": 7704,
      "vọng": 7705,
      "ầng": 7706,
      "vay": 7707,
      "dâm": 7708,
      "lin": 7709,
      "luôn": 7710,
      "ສະມາ": 7711,
      "ອິດ": 7712,
      "riêng": 7713,
      "tỉ": 7714,
      "Tiến": 7715,
      "ມາດ": 7716,
      "Goo": 7717,
      "vòng": 7718,
      "thật": 7719,
      "ຣີ": 7720,
      "ສະແດງ": 7721,
      "ວຽງຈັນ": 7722,
      "Sa": 7723,
      "ມູນ": 7724,
      "Năm": 7725,
      "Vĩnh": 7726,
      "lừa": 7727,
      "tín": 7728,
      "bước": 7729,
      "ກ່ອນ": 7730,
      "Dũng": 7731,
      "raq": 7732,
      "rael": 7733,
      "khiển": 7734,
      "tầng": 7735,
      "sông": 7736,
      "Bảo": 7737,
      "ໍ້າ": 7738,
      "lược": 7739,
      "ມີການ": 7740,
      "ỏng": 7741,
      "ເນີນ": 7742,
      "trao": 7743,
      "ທິດ": 7744,
      "Israel": 7745,
      "quê": 7746,
      "Ủy": 7747,
      "lễ": 7748,
      "ຂັ້ນ": 7749,
      "Iraq": 7750,
      "Trưởng": 7751,
      "bổ": 7752,
      "Nhiều": 7753,
      "Google": 7754,
      "Nghệ": 7755,
      "ສັງຄົມ": 7756,
      "Phong": 7757,
      "chương": 7758,
      "Việc": 7759,
      "ທ່ອງ": 7760,
      "nu": 7761,
      "EU": 7762,
      "ເດີ": 7763,
      "nêu": 7764,
      "ໜຶ່ງ": 7765,
      "đòi": 7766,
      "ູດ": 7767,
      "ổn": 7768,
      "toán": 7769,
      "hỏa": 7770,
      "nghỉ": 7771,
      "ທໍາ": 7772,
      "na": 7773,
      "thái": 7774,
      "trò": 7775,
      "Lâm": 7776,
      "ngại": 7777,
      "ok": 7778,
      "ຈັກ": 7779,
      "ẵn": 7780,
      "hung": 7781,
      "lan": 7782,
      "Bệnh": 7783,
      "hoa": 7784,
      "ắk": 7785,
      "dừng": 7786,
      "Biên": 7787,
      "Thế": 7788,
      "ວິທະຍາ": 7789,
      "Nhân": 7790,
      "lỗi": 7791,
      "mô": 7792,
      "lớp": 7793,
      "cải": 7794,
      "App": 7795,
      "AN": 7796,
      "xuyên": 7797,
      "ກຸ່ມ": 7798,
      "ວຽກງານ": 7799,
      "Đình": 7800,
      "ໄລຍະ": 7801,
      "bày": 7802,
      "ດຳ": 7803,
      "ຊື່": 7804,
      "Đối": 7805,
      "Tài": 7806,
      "ໄມ້": 7807,
      "ớm": 7808,
      "nhìn": 7809,
      "ກວດ": 7810,
      "mặc": 7811,
      "Đội": 7812,
      "Dân": 7813,
      "viết": 7814,
      "ຮ່ວມມື": 7815,
      "ສະຖານ": 7816,
      "ແຈ": 7817,
      "Tòa": 7818,
      "Al": 7819,
      "sẵn": 7820,
      "Mi": 7821,
      "gốc": 7822,
      "Tàu": 7823,
      "ຄົ້ນ": 7824,
      "ໄວ້": 7825,
      "dục": 7826,
      "Hiệp": 7827,
      "oh": 7828,
      "ຄືນ": 7829,
      "ov": 7830,
      "ເລື່ອງ": 7831,
      "Viện": 7832,
      "Ki": 7833,
      "ຊິກ": 7834,
      "ໂມ": 7835,
      "ເຫຼ": 7836,
      "ຽວ": 7837,
      "phó": 7838,
      "đời": 7839,
      "xi": 7840,
      "trăm": 7841,
      "45": 7842,
      "phong": 7843,
      "ນາຍົກ": 7844,
      "31": 7845,
      "ỳnh": 7846,
      "ບາດ": 7847,
      "chú": 7848,
      "mắt": 7849,
      "ີ່": 7850,
      "ແກ້": 7851,
      "ຄຸນ": 7852,
      "thác": 7853,
      "2012": 7854,
      "As": 7855,
      "Được": 7856,
      "ເວັບ": 7857,
      "ບາຍ": 7858,
      "cắt": 7859,
      "nộ": 7860,
      "ກົດໝາຍ": 7861,
      "35": 7862,
      "ur": 7863,
      "sớm": 7864,
      "ສາຍ": 7865,
      "ຈິງ": 7866,
      "2011": 7867,
      "nhi": 7868,
      "chặt": 7869,
      "Phan": 7870,
      "Ma": 7871,
      "ຕ້ອງການ": 7872,
      "ສອນ": 7873,
      "ປະຈຳ": 7874,
      "ພະນ": 7875,
      "Sáng": 7876,
      "ters": 7877,
      "ດິນ": 7878,
      "ເອງ": 7879,
      "đám": 7880,
      "lậu": 7881,
      "bạo": 7882,
      "buổi": 7883,
      "ùa": 7884,
      "ວາ": 7885,
      "thuế": 7886,
      "CSGT": 7887,
      "ນັບ": 7888,
      "sẻ": 7889,
      "bồi": 7890,
      "roid": 7891,
      "Cam": 7892,
      "tránh": 7893,
      "thích": 7894,
      "Linh": 7895,
      "thủy": 7896,
      "70": 7897,
      "Vì": 7898,
      "Đảng": 7899,
      "Tổ": 7900,
      "ສປປ": 7901,
      "Sh": 7902,
      "song": 7903,
      "kịp": 7904,
      "Android": 7905,
      "ໂນໂລ": 7906,
      "ຂ້າພະເຈົ້າ": 7907,
      "Thượng": 7908,
      "ຕຸ": 7909,
      "Thổ": 7910,
      "ໂຍ": 7911,
      "ສົນ": 7912,
      "ຽດ": 7913,
      "ຮ້ອງ": 7914,
      "lâu": 7915,
      "chờ": 7916,
      "lạc": 7917,
      "ເຄື່ອນ": 7918,
      "ັກໂນໂລ": 7919,
      "ປັບ": 7920,
      "Nhĩ": 7921,
      "Bị": 7922,
      "vượt": 7923,
      "Apple": 7924,
      "băng": 7925,
      "thử": 7926,
      "ຈໍາ": 7927,
      "tưởng": 7928,
      "mật": 7929,
      "Mos": 7930,
      "້ຽມ": 7931,
      "ພົວ": 7932,
      "phiếu": 7933,
      "thuẫn": 7934,
      "phê": 7935,
      "nhấn": 7936,
      "ຕ່າງປະເທດ": 7937,
      "Cũng": 7938,
      "ເລັດ": 7939,
      "kỹ": 7940,
      "ສາກ": 7941,
      "mi": 7942,
      "tầm": 7943,
      "ມື້": 7944,
      "Khánh": 7945,
      "Cu": 7946,
      "ອອນ": 7947,
      "້າວ": 7948,
      "Lộc": 7949,
      "Cường": 7950,
      "Thuận": 7951,
      "nuôi": 7952,
      "ລ້ານ": 7953,
      "lip": 7954,
      "sợ": 7955,
      "ລຸ": 7956,
      "ວິທີ": 7957,
      "man": 7958,
      "ກຳລັງ": 7959,
      "ບໍລິການ": 7960,
      "pháo": 7961,
      "ess": 7962,
      "ຝ່າຍ": 7963,
      "ຢ້ຽມ": 7964,
      "ຸ້ມ": 7965,
      "ຍົກ": 7966,
      "cận": 7967,
      "ຢາ": 7968,
      "don": 7969,
      "máu": 7970,
      "cắp": 7971,
      "ຈຸດ": 7972,
      "ສືບ": 7973,
      "AF": 7974,
      "bãi": 7975,
      "Vinh": 7976,
      "ຫົວໜ້າ": 7977,
      "ga": 7978,
      "ຫາກ": 7979,
      "đích": 7980,
      "ຫຼີ": 7981,
      "ລະບົບ": 7982,
      "gỗ": 7983,
      "môi": 7984,
      "ໝົດ": 7985,
      "thất": 7986,
      "ກາຍ": 7987,
      "ót": 7988,
      "phận": 7989,
      "ຂາຍ": 7990,
      "ຟ້າ": 7991,
      "ຮອບ": 7992,
      "ພາສາອັງກິດ": 7993,
      "Lao": 7994,
      "bi": 7995,
      "ashi": 7996,
      "bờ": 7997,
      "kg": 7998,
      "nỗ": 7999,
      "ແອ": 8000,
      "iOS": 8001,
      "sâu": 8002,
      "ທາ": 8003,
      "Qua": 8004,
      "xóm": 8005,
      "ບັນຫາ": 8006,
      "lâm": 8007,
      "ສຶກສາ": 8008,
      "ແຂ່ງ": 8009,
      "ina": 8010,
      "nghệ": 8011,
      "trì": 8012,
      "tốc": 8013,
      "sửa": 8014,
      "ກີ": 8015,
      "ອື່ນໆ": 8016,
      "ທົບ": 8017,
      "ໄຫວ": 8018,
      "ຕິດຕາມ": 8019,
      "VO": 8020,
      "ເຊັ່ນ": 8021,
      "Mar": 8022,
      "ໂທລະ": 8023,
      "ຈຸບັນ": 8024,
      "ka": 8025,
      "ນອກ": 8026,
      "ngôi": 8027,
      "èo": 8028,
      "hoàng": 8029,
      "com": 8030,
      "ິ້ນ": 8031,
      "đuổi": 8032,
      "ỏe": 8033,
      "Hương": 8034,
      "đau": 8035,
      "vết": 8036,
      "ựa": 8037,
      "ຮັກສາ": 8038,
      "ki": 8039,
      "ອິນ": 8040,
      "ັກງານ": 8041,
      "ເກົາ": 8042,
      "ຕັດ": 8043,
      "Hàng": 8044,
      "ຕື່ມ": 8045,
      "ນາຍົກລັດຖະມົນຕີ": 8046,
      "màu": 8047,
      "Ri": 8048,
      "ge": 8049,
      "ສົ່ງໃຫ້": 8050,
      "ຂ່າວວີໂອເອລາວ": 8051,
      "ຕິດຕໍ່": 8052,
      "vai": 8053,
      "Chiều": 8054,
      "chợ": 8055,
      "khỏe": 8056,
      "ລັກ": 8057,
      "ເພດ": 8058,
      "ປະສ": 8059,
      "ວົງ": 8060,
      "be": 8061,
      "ໄທ": 8062,
      "ẹp": 8063,
      "xâm": 8064,
      "Thủy": 8065,
      "CP": 8066,
      "khống": 8067,
      "nghĩ": 8068,
      "Ai": 8069,
      "ລະດັບ": 8070,
      "ປະມານ": 8071,
      "ວຽນ": 8072,
      "ສະຫຼ": 8073,
      "âng": 8074,
      "AP": 8075,
      "sứ": 8076,
      "nhờ": 8077,
      "II": 8078,
      "trật": 8079,
      "ບໍດີ": 8080,
      "Tư": 8081,
      "đen": 8082,
      "ທະວີ": 8083,
      "ພົວພັນ": 8084,
      "ຫຍາຍ": 8085,
      "Chí": 8086,
      "ngton": 8087,
      "õi": 8088,
      "thổ": 8089,
      "coi": 8090,
      "ນະຄອນຫຼວງ": 8091,
      "ພວກເຂົາ": 8092,
      "ຕະຫຼ": 8093,
      "ເບິ່ງທາງ": 8094,
      "Reu": 8095,
      "Phúc": 8096,
      "XX": 8097,
      "ry": 8098,
      "uống": 8099,
      "khá": 8100,
      "2010": 8101,
      "Chỉ": 8102,
      "ນຶ່ງ": 8103,
      "ສົ່ງໃຫ້ອ່ານ": 8104,
      "Đoàn": 8105,
      "300": 8106,
      "nộp": 8107,
      "ສະມາຊິກ": 8108,
      "້ຍ": 8109,
      "ຊອບ": 8110,
      "Washi": 8111,
      "ຄານ": 8112,
      "Reuters": 8113,
      "ays": 8114,
      "nóng": 8115,
      "ຫງ": 8116,
      "ໜ້າທີ່": 8117,
      "Kiểm": 8118,
      "ea": 8119,
      "ສຸກ": 8120,
      "າທິ": 8121,
      "Washington": 8122,
      "ປຸງ": 8123,
      "Ngân": 8124,
      "eb": 8125,
      "Di": 8126,
      "ອຸດ": 8127,
      "ຢາມ": 8128,
      "ສຸ": 8129,
      "họa": 8130,
      "Về": 8131,
      "Để": 8132,
      "ແຫຼ": 8133,
      "duy": 8134,
      "vu": 8135,
      "căng": 8136,
      "Thắng": 8137,
      "Đài": 8138,
      "trừng": 8139,
      "sàng": 8140,
      "ຄຸ້ມ": 8141,
      "Lúc": 8142,
      "ສາກົນ": 8143,
      "ຢູ": 8144,
      "ເຟ": 8145,
      "ຍາກ": 8146,
      "mưu": 8147,
      "ash": 8148,
      "ກອນ": 8149,
      "ບຸນ": 8150,
      "ແນກ": 8151,
      "iềm": 8152,
      "ສັບ": 8153,
      "Với": 8154,
      "ສູ່": 8155,
      "ATO": 8156,
      "AFP": 8157,
      "chứa": 8158,
      "ພະນັກງານ": 8159,
      "Lý": 8160,
      "vid": 8161,
      "tạp": 8162,
      "dậy": 8163,
      "Chiến": 8164,
      "Sự": 8165,
      "ຕຳ": 8166,
      "sỹ": 8167,
      "nghề": 8168,
      "de": 8169,
      "chọn": 8170,
      "NATO": 8171,
      "uyệt": 8172,
      "Phước": 8173,
      "ເນື້ອ": 8174,
      "mong": 8175,
      "ປັດ": 8176,
      "tái": 8177,
      "ngừng": 8178,
      "ແທນ": 8179,
      "ບໍ່ມີ": 8180,
      "thụ": 8181,
      "mẫu": 8182,
      "ຂັນ": 8183,
      "đốt": 8184,
      "đập": 8185,
      "​.": 8186,
      "ຄວນ": 8187,
      "Tĩnh": 8188,
      "Ha": 8189,
      "ຂະຫຍາຍ": 8190,
      "Khoảng": 8191,
      "CSĐT": 8192,
      "HĐXX": 8193,
      "úi": 8194,
      "mâu": 8195,
      "ber": 8196,
      "ຈາ": 8197,
      "nền": 8198,
      "Còn": 8199,
      "ອະນ": 8200,
      "ຈຳນວນ": 8201,
      "Định": 8202,
      "ook": 8203,
      "đâu": 8204,
      "tắc": 8205,
      "ຜ່ານມາ": 8206,
      "tion": 8207,
      "ກົມ": 8208,
      "bí": 8209,
      "ມະນ": 8210,
      "nhũng": 8211,
      "ພິທີ": 8212,
      "ລົງທຶນ": 8213,
      "HH": 8214,
      "ເຫຼື": 8215,
      "hy": 8216,
      "ຈີ": 8217,
      "ເສີມ": 8218,
      "Nguồn": 8219,
      "sa": 8220,
      "góp": 8221,
      "Trang": 8222,
      "thăng": 8223,
      "ngư": 8224,
      "ão": 8225,
      "thảm": 8226,
      "sung": 8227,
      "AS": 8228,
      "ທ່ອງທ່ຽວ": 8229,
      "Đa": 8230,
      "ໂອກ": 8231,
      "sắt": 8232,
      "rời": 8233,
      "ບ່ອນ": 8234,
      "ສາຫະ": 8235,
      "ຂອງການ": 8236,
      "80": 8237,
      "aysia": 8238,
      "ແຈ້ງ": 8239,
      "tri": 8240,
      "ຊຽນ": 8241,
      "ຊັບ": 8242,
      "CN": 8243,
      "ທິການ": 8244,
      "ຊອກ": 8245,
      "Cộng": 8246,
      "Malaysia": 8247,
      "ul": 8248,
      "VOV": 8249,
      "Duy": 8250,
      "phe": 8251,
      "ụp": 8252,
      "ສອບ": 8253,
      "ພາຍໃນ": 8254,
      "ອາເມ": 8255,
      "ນໍ້າ": 8256,
      "ແປງ": 8257,
      "dõi": 8258,
      "ngã": 8259,
      "ປ້ອງກັນ": 8260,
      "thập": 8261,
      "ເຮືອນ": 8262,
      "ອົບ": 8263,
      "chứ": 8264,
      "liệt": 8265,
      "ສຳຄັນ": 8266,
      "Cần": 8267,
      "dữ": 8268,
      "ັມ": 8269,
      "khắc": 8270,
      "Lương": 8271,
      "nắm": 8272,
      "ຍາດ": 8273,
      "ໂອກາດ": 8274,
      "ez": 8275,
      "ໄດ້ຮັບການ": 8276,
      "ງາມ": 8277,
      "um": 8278,
      "ຢືນ": 8279,
      "ສິດທິ": 8280,
      "ປະທານາທິ": 8281,
      "Tập": 8282,
      "ເດີນ": 8283,
      "đứa": 8284,
      "túi": 8285,
      "lính": 8286,
      "lai": 8287,
      "ອາຍ": 8288,
      "ລາຄາ": 8289,
      "TH": 8290,
      "ກໍ່ສ້າງ": 8291,
      "nâng": 8292,
      "net": 8293,
      "ượu": 8294,
      "ອາຫານ": 8295,
      "Vào": 8296,
      "Par": 8297,
      "mời": 8298,
      "Huy": 8299,
      "clip": 8300,
      "chém": 8301,
      "Loan": 8302,
      "ace": 8303,
      "ຢ້ຽມຢາມ": 8304,
      "ໝັ້ນ": 8305,
      "ປ່າ": 8306,
      "ປະທານາທິບໍດີ": 8307,
      "ົ່ານ": 8308,
      "TNHH": 8309,
      "ທີ່ດີ": 8310,
      "era": 8311,
      "ທະນາ": 8312,
      "az": 8313,
      "bốc": 8314,
      "ທະຫານ": 8315,
      "Le": 8316,
      "ເຫຼືອ": 8317,
      "ຄູ່": 8318,
      "ຫລື": 8319,
      "PC": 8320,
      "ຖາ": 8321,
      "rượu": 8322,
      "Nghị": 8323,
      "xấu": 8324,
      "dễ": 8325,
      "ຄົງ": 8326,
      "ຄົວ": 8327,
      "ngủ": 8328,
      "úy": 8329,
      "່ອຍ": 8330,
      "2009": 8331,
      "ຄອບ": 8332,
      "Hợp": 8333,
      "Hình": 8334,
      "cũ": 8335,
      "ໄສ": 8336,
      "ຂ້ອງ": 8337,
      "Con": 8338,
      "may": 8339,
      "Thơ": 8340,
      "bia": 8341,
      "ສະເພາະ": 8342,
      "Thời": 8343,
      "ລາຍງານ": 8344,
      "Nghĩa": 8345,
      "Thọ": 8346,
      "ເວັນ": 8347,
      "đáp": 8348,
      "Cập": 8349,
      "nghiên": 8350,
      "Bo": 8351,
      "hôn": 8352,
      "ນ໌": 8353,
      "ຫຼັກ": 8354,
      "ຕອບ": 8355,
      "ສະພາບ": 8356,
      "tán": 8357,
      "giật": 8358,
      "Ro": 8359,
      "ແສ": 8360,
      "ຫນຶ່ງ": 8361,
      "ພູ": 8362,
      "diệt": 8363,
      "VKS": 8364,
      "ເລີ່ມ": 8365,
      "vỡ": 8366,
      "ném": 8367,
      "Chánh": 8368,
      "lá": 8369,
      "ຫງວຽນ": 8370,
      "ເວັບໄຊ": 8371,
      "ຣາ": 8372,
      "ລື": 8373,
      "Thiên": 8374,
      "bánh": 8375,
      "nông": 8376,
      "trích": 8377,
      "book": 8378,
      "đôi": 8379,
      "ts": 8380,
      "ການຄ້າ": 8381,
      "lư": 8382,
      "khóa": 8383,
      "Và": 8384,
      "ເໜີ": 8385,
      "fi": 8386,
      "ໂຮ": 8387,
      "ໂຈ": 8388,
      "ຊົມ": 8389,
      "nghìn": 8390,
      "ມະຫາ": 8391,
      "thuyền": 8392,
      "ແກ້ໄຂ": 8393,
      "Cao": 8394,
      "Huế": 8395,
      "ຟັງ": 8396,
      "ຂ້ອຍ": 8397,
      "36": 8398,
      "đón": 8399,
      "ຶດ": 8400,
      "ອອນໄລ": 8401,
      "thậm": 8402,
      "dứt": 8403,
      "nhẹ": 8404,
      "ເຮັດວຽກ": 8405,
      "ali": 8406,
      "Ni": 8407,
      "ພະແນກ": 8408,
      "thiện": 8409,
      "ບິນ": 8410,
      "liền": 8411,
      "ເຊື່ອມ": 8412,
      "Bùi": 8413,
      "ard": 8414,
      "ໜ່ວຍ": 8415,
      "thú": 8416,
      "giấu": 8417,
      "trại": 8418,
      "ເກັບ": 8419,
      "trời": 8420,
      "LH": 8421,
      "bối": 8422,
      "Thương": 8423,
      "Na": 8424,
      "xăng": 8425,
      "quen": 8426,
      "ຣິ": 8427,
      "nhắc": 8428,
      "pu": 8429,
      "Đắk": 8430,
      "Af": 8431,
      "Air": 8432,
      "ເຊື້ອ": 8433,
      "đỏ": 8434,
      "loạn": 8435,
      "Hữu": 8436,
      "ເໜືອ": 8437,
      "thắng": 8438,
      "ràng": 8439,
      "VT": 8440,
      "ຮ້າຍ": 8441,
      "Họ": 8442,
      "ໂປ": 8443,
      "cãi": 8444,
      "196": 8445,
      "ຄັ້ງທີ": 8446,
      "ຫລວງ": 8447,
      "ມອບ": 8448,
      "lô": 8449,
      "ວັດທ": 8450,
      "ເອີ": 8451,
      "trắng": 8452,
      "acebook": 8453,
      "Cuộc": 8454,
      "າກອນ": 8455,
      "sạn": 8456,
      "suốt": 8457,
      "nhu": 8458,
      "ປອດ": 8459,
      "ore": 8460,
      "phúc": 8461,
      "trinh": 8462,
      "trục": 8463,
      "ກິລາ": 8464,
      "ãy": 8465,
      "Nai": 8466,
      "ຣັດ": 8467,
      "Ar": 8468,
      "Hy": 8469,
      "mắc": 8470,
      "lục": 8471,
      "làng": 8472,
      "ùm": 8473,
      "Nghi": 8474,
      "ụi": 8475,
      "ອະນຸ": 8476,
      "ໄໝ": 8477,
      "lạ": 8478,
      "bo": 8479,
      "ວະ": 8480,
      "Cùng": 8481,
      "ói": 8482,
      "xong": 8483,
      "ເທື່ອ": 8484,
      "ລ້ອມ": 8485,
      "cập": 8486,
      "ເອກະ": 8487,
      "ກ່າວວ່າ": 8488,
      "chối": 8489,
      "hiếp": 8490,
      "ຢາກ": 8491,
      "Bu": 8492,
      "esia": 8493,
      "Co": 8494,
      "bóng": 8495,
      "Don": 8496,
      "Khu": 8497,
      "90": 8498,
      "se": 8499,
      "ຫຼິ້ນ": 8500,
      "Indon": 8501,
      "Tâm": 8502,
      "ຄາດ": 8503,
      "Quản": 8504,
      "siêu": 8505,
      "Cụ": 8506,
      "giành": 8507,
      "ສິງ": 8508,
      "ທ້າຍ": 8509,
      "ທ້ອງ": 8510,
      "Indonesia": 8511,
      "ẹn": 8512,
      "ແຕກ": 8513,
      "ມິດ": 8514,
      "PCC": 8515,
      "ກ້": 8516,
      "ອອນໄລນ໌": 8517,
      "ແຂ່ງຂັນ": 8518,
      "cảng": 8519,
      "ຂື້ນ": 8520,
      "vé": 8521,
      "ເສັ້ນ": 8522,
      "ຊື້": 8523,
      "tệ": 8524,
      "ເຢ": 8525,
      "trương": 8526,
      "ຫມົດ": 8527,
      "ສະບ": 8528,
      "lẽ": 8529,
      "ມັກ": 8530,
      "Pak": 8531,
      "cow": 8532,
      "giống": 8533,
      "​:": 8534,
      "tiểu": 8535,
      "Viet": 8536,
      "trọ": 8537,
      "đào": 8538,
      "ຮອດ": 8539,
      "thải": 8540,
      "ເກົາຫຼີ": 8541,
      "Toàn": 8542,
      "Võ": 8543,
      "sóng": 8544,
      "ພົນ": 8545,
      "ກຳມະ": 8546,
      "ສັນຍາ": 8547,
      "chắc": 8548,
      "Moscow": 8549,
      "ghan": 8550,
      "Hôm": 8551,
      "ຄຸ້ມຄອງ": 8552,
      "Bên": 8553,
      "ຕົກລົງ": 8554,
      "ເລຂາ": 8555,
      "h30": 8556,
      "ທັບ": 8557,
      "chắn": 8558,
      "ຈຶ່ງ": 8559,
      "​,": 8560,
      "ທູດ": 8561,
      "ễm": 8562,
      "ພື້ນຖານ": 8563,
      "ຕິດຕໍ່ພວກເຮົາ": 8564,
      "ớt": 8565,
      "giác": 8566,
      "News": 8567,
      "ກໍລະ": 8568,
      "ແວດ": 8569,
      "Afghan": 8570,
      "ແມ່ຍິງ": 8571,
      "ປັບປຸງ": 8572,
      "ທາງການ": 8573,
      "ແຕ່ງ": 8574,
      "PCCC": 8575,
      "Afghanistan": 8576,
      "ບູ": 8577,
      "ໃຫ້ແກ່": 8578,
      "đương": 8579,
      "Lào": 8580,
      "dòng": 8581,
      "one": 8582,
      "thầu": 8583,
      "ຕ້ານ": 8584,
      "ບໍ່ໄດ້": 8585,
      "ຂ່າວສານ": 8586,
      "Quyết": 8587,
      "ແຊ": 8588,
      "IA": 8589,
      "ທີ່ເປັນ": 8590,
      "Tình": 8591,
      "່ວງ": 8592,
      "38": 8593,
      "ເຣ": 8594,
      "ແດນ": 8595,
      "Đinh": 8596,
      "hút": 8597,
      "Trương": 8598,
      "no": 8599,
      "ັຟ": 8600,
      "ແຜນການ": 8601,
      "ຊຸດ": 8602,
      "tộc": 8603,
      "ເປົ້າ": 8604,
      "ງົບ": 8605,
      "ແຍ": 8606,
      "chấm": 8607,
      "ຽກ": 8608,
      "cất": 8609,
      "dành": 8610,
      "luyện": 8611,
      "Tin": 8612,
      "kháng": 8613,
      "ແພ": 8614,
      "ໍ້": 8615,
      "dập": 8616,
      "ຈົນ": 8617,
      "Du": 8618,
      "ືອບ": 8619,
      "ຕະພັນ": 8620,
      "Me": 8621,
      "ngo": 8622,
      "đỡ": 8623,
      "ປາກ": 8624,
      "ເຄື່ອນໄຫວ": 8625,
      "ປະກັນ": 8626,
      "ຍູ້": 8627,
      "ໂຫຍ": 8628,
      "phù": 8629,
      "kịch": 8630,
      "lương": 8631,
      "Ngô": 8632,
      "ໃບ": 8633,
      "Vân": 8634,
      "Mặc": 8635,
      "ເໝ": 8636,
      "Hậu": 8637,
      "400": 8638,
      "Điện": 8639,
      "sắc": 8640,
      "ທ່າ": 8641,
      "khắp": 8642,
      "Pakistan": 8643,
      "Joh": 8644,
      "thang": 8645,
      "ຈໍານ": 8646,
      "ທີ່ໄດ້": 8647,
      "ບໍລິຫານ": 8648,
      "khối": 8649,
      "ໃຫມ": 8650,
      "ຂະນະ": 8651,
      "ເຜີຍ": 8652,
      "ເທົ່າ": 8653,
      "ທີມ": 8654,
      "Ra": 8655,
      "Trên": 8656,
      "ຮ່າງ": 8657,
      "ຂອບ": 8658,
      "ເນື່ອງ": 8659,
      "hối": 8660,
      "34": 8661,
      "ກ່ຽວຂ້ອງ": 8662,
      "Mu": 8663,
      "hề": 8664,
      "ຫຍັງ": 8665,
      "ໄກ": 8666,
      "hiệp": 8667,
      "ປະກາດ": 8668,
      "ແຕ່ລະ": 8669,
      "ຂຽນ": 8670,
      "ທີ່ທ່ານ": 8671,
      "Pe": 8672,
      "mar": 8673,
      "ໂຈມ": 8674,
      "37": 8675,
      "sắp": 8676,
      "ຫມາຍ": 8677,
      "ຕ້ອນ": 8678,
      "Thứ": 8679,
      "ເລກ": 8680,
      "ເຫລ": 8681,
      "chẳng": 8682,
      "ແລະການ": 8683,
      "ress": 8684,
      "TPHCM": 8685,
      "Danh": 8686,
      "ປະສົບ": 8687,
      "CH": 8688,
      "ອາຊຽນ": 8689,
      "ຍອດ": 8690,
      "55": 8691,
      "che": 8692,
      "ທຣ": 8693,
      "ອຳ": 8694,
      "ຍ້ອນ": 8695,
      "ຫາຍ": 8696,
      "ຈໍານວນ": 8697,
      "tàng": 8698,
      "trừ": 8699,
      "ໃນປີ": 8700,
      "ຄອບຄົວ": 8701,
      "ຄຸມ": 8702,
      "ຂ້າງ": 8703,
      "ໃຫມ່": 8704,
      "yo": 8705,
      "ຫຼັງຈາກ": 8706,
      "The": 8707,
      "ູ້ນ": 8708,
      "Hạ": 8709,
      "ວິຊາ": 8710,
      "sổ": 8711,
      "chụp": 8712,
      "Tiền": 8713,
      "Nhận": 8714,
      "video": 8715,
      "Cr": 8716,
      "ສູ້": 8717,
      "taxi": 8718,
      "Lai": 8719,
      "trúng": 8720,
      "ers": 8721,
      "ປຸ່ນ": 8722,
      "cóc": 8723,
      "ແທ້": 8724,
      "hạm": 8725,
      "ngang": 8726,
      "ໃນວັນທີ": 8727,
      "ໂມງ": 8728,
      "Đó": 8729,
      "bọn": 8730,
      "Cầu": 8731,
      "ຕະຫຼາດ": 8732,
      "treo": 8733,
      "chấn": 8734,
      "ຍີ່": 8735,
      "John": 8736,
      "ສົງ": 8737,
      "Kiev": 8738,
      "Huỳnh": 8739,
      "ຄົບ": 8740,
      "tral": 8741,
      "uyến": 8742,
      "ຕື່ມອີກ": 8743,
      "Đào": 8744,
      "Kết": 8745,
      "Ab": 8746,
      "Bí": 8747,
      "ຫລັງ": 8748,
      "47": 8749,
      "ຫລັບ": 8750,
      "ອາກ": 8751,
      "Lợi": 8752,
      ">>": 8753,
      ".”": 8754,
      "ຜະລິດຕະພັນ": 8755,
      "mấy": 8756,
      "hầu": 8757,
      "33": 8758,
      "huấn": 8759,
      "ສະບັບ": 8760,
      "ແຂງ": 8761,
      "Nông": 8762,
      "gói": 8763,
      "Đỗ": 8764,
      "Mo": 8765,
      "cà": 8766,
      "ວັດທະນະ": 8767,
      "ເພງ": 8768,
      "Inter": 8769,
      "ມະນຸດ": 8770,
      "gắn": 8771,
      "Chị": 8772,
      "Tối": 8773,
      "chăm": 8774,
      "Tết": 8775,
      "ມັດ": 8776,
      "Cty": 8777,
      "ຍົມ": 8778,
      "Car": 8779,
      "Ass": 8780,
      "ດຽວ": 8781,
      "Lib": 8782,
      "GD": 8783,
      "ບາ": 8784,
      "Số": 8785,
      "ພຽງແຕ່": 8786,
      "ຫັດ": 8787,
      "ຖິ່ນ": 8788,
      "núi": 8789,
      "ທັງໝົດ": 8790,
      "ດຳເນີນ": 8791,
      "Pa": 8792,
      "bại": 8793,
      "ghế": 8794,
      "giai": 8795,
      "TTX": 8796,
      "ຟຣີ": 8797,
      "ngàn": 8798,
      "ໂຮງຮຽນ": 8799,
      "ເຊີນ": 8800,
      "ຮຽກ": 8801,
      "phức": 8802,
      "ruột": 8803,
      "Mạnh": 8804,
      "ສໍາລັບການ": 8805,
      "èn": 8806,
      "ພິເສດ": 8807,
      "thượng": 8808,
      "Jong": 8809,
      "nhiễm": 8810,
      "uro": 8811,
      "ອາຊີ": 8812,
      "niệm": 8813,
      "2008": 8814,
      "Đặng": 8815,
      "ອາຍຸ": 8816,
      "Trọng": 8817,
      "ຖາມ": 8818,
      "tôn": 8819,
      "nhánh": 8820,
      "nối": 8821,
      "land": 8822,
      "ປັດຈຸບັນ": 8823,
      "Libya": 8824,
      "thù": 8825,
      "ໂຍບາຍ": 8826,
      "ທົດ": 8827,
      "ngược": 8828,
      "phiến": 8829,
      "ກ່ຽວກັບການ": 8830,
      "Cai": 8831,
      "Bara": 8832,
      "ọt": 8833,
      "ໂຣ": 8834,
      "ກົງ": 8835,
      "ine": 8836,
      "EC": 8837,
      "tụ": 8838,
      "ຮົມ": 8839,
      "thấp": 8840,
      "Hiếu": 8841,
      "ັ້ມ": 8842,
      "ກໍາລັງ": 8843,
      "mũ": 8844,
      "ອາກາດ": 8845,
      "ela": 8846,
      "ຈ່າຍ": 8847,
      "ເປັນການ": 8848,
      "ບັນດ": 8849,
      "Nha": 8850,
      "nhảy": 8851,
      "Pal": 8852,
      "ຜູ້ນ": 8853,
      "tor": 8854,
      "ລາດ": 8855,
      "ຂົງ": 8856,
      "ແລກ": 8857,
      "ໄຕ": 8858,
      "NG": 8859,
      "kính": 8860,
      "ຣ໌": 8861,
      "trữ": 8862,
      "ອາທິດ": 8863,
      "tal": 8864,
      "ợt": 8865,
      "tung": 8866,
      "dạng": 8867,
      "ຂອງຕົນ": 8868,
      "Dự": 8869,
      "ໂພ": 8870,
      "rủ": 8871,
      "Chu": 8872,
      "Si": 8873,
      "ເພື່ອນ": 8874,
      "ພິມ": 8875,
      "ໂຄສະ": 8876,
      "ຊຸກ": 8877,
      "Man": 8878,
      "Tùng": 8879,
      "bank": 8880,
      "Assad": 8881,
      "Giao": 8882,
      "່ຍ": 8883,
      "My": 8884,
      "ກວ": 8885,
      "ໜັກ": 8886,
      "iếc": 8887,
      "nã": 8888,
      "ສືບຕໍ່": 8889,
      "nghiện": 8890,
      "suy": 8891,
      "chó": 8892,
      "nhớ": 8893,
      "ເຊັນ": 8894,
      "gắng": 8895,
      "trạm": 8896,
      "ຍຸດ": 8897,
      "ນົດ": 8898,
      "Da": 8899,
      "Hãng": 8900,
      "ໄຟຟ້າ": 8901,
      "ສຶກ": 8902,
      "ກັດ": 8903,
      "lãi": 8904,
      "32": 8905,
      "ຸນາ": 8906,
      "ເຕີ້": 8907,
      "LĐ": 8908,
      "đẹp": 8909,
      "To": 8910,
      "me": 8911,
      "ໂຫຍດ": 8912,
      "ເທັກໂນໂລ": 8913,
      "tụng": 8914,
      "chiếu": 8915,
      "ລົບ": 8916,
      "Thấy": 8917,
      "ụy": 8918,
      "ເດີນທາງ": 8919,
      "ລິ້ງ": 8920,
      "chìm": 8921,
      "ຫວັດ": 8922,
      "ero": 8923,
      "ບວນ": 8924,
      "ລົມ": 8925,
      "tồn": 8926,
      "Ka": 8927,
      "Bắt": 8928,
      "đem": 8929,
      "ປູ": 8930,
      "bến": 8931,
      "ປະເພດ": 8932,
      "tận": 8933,
      "mai": 8934,
      "ສະພາແຫ່ງຊາດ": 8935,
      "hoang": 8936,
      "MT": 8937,
      "ວກັນ": 8938,
      "ລ້": 8939,
      "vn": 8940,
      "ກ່ຽວກັບພວກເຮົາ": 8941,
      "Te": 8942,
      "cát": 8943,
      "ve": 8944,
      "thịt": 8945,
      "ເຟສ": 8946,
      "Hành": 8947,
      "ແບ່ງ": 8948,
      "Thường": 8949,
      "cản": 8950,
      "ຊັ້ນ": 8951,
      "thiệp": 8952,
      "ແວດລ້ອມ": 8953,
      "LHQ": 8954,
      "ສວນ": 8955,
      "ສັ່ງ": 8956,
      "ork": 8957,
      "Tháng": 8958,
      "ອົບຮົມ": 8959,
      "BC": 8960,
      "go": 8961,
      "ເກົ່າ": 8962,
      "ເຟສບຸກ": 8963,
      "ຄູ": 8964,
      "hè": 8965,
      "ອຽດ": 8966,
      "Aus": 8967,
      "Dù": 8968,
      "ຮັບຜິດ": 8969,
      "Facebook": 8970,
      "trưa": 8971,
      "ພັດ": 8972,
      "ຝຶກ": 8973,
      "ຕ້ອນຮັບ": 8974,
      "ຫຼວດ": 8975,
      "ທອງ": 8976,
      "ộn": 8977,
      "ສິນຄ້າ": 8978,
      "gan": 8979,
      "Kiên": 8980,
      "ໂຄສະນາ": 8981,
      "າຍາມ": 8982,
      "ườn": 8983,
      "So": 8984,
      "cân": 8985,
      "ໃກ້": 8986,
      "TTXVN": 8987,
      "່ຽງ": 8988,
      "ເຕັກໂນໂລ": 8989,
      "ໜຸ່ມ": 8990,
      "vây": 8991,
      "Barack": 8992,
      "ວ່າດ້ວຍ": 8993,
      "Tuyên": 8994,
      "ສັກ": 8995,
      "hơi": 8996,
      "điệp": 8997,
      "ໂຄງ": 8998,
      "ລະນະ": 8999,
      "ênh": 9000,
      "ກວດກາ": 9001,
      "Can": 9002,
      "Trà": 9003,
      "ຶງ": 9004,
      "ວິທະຍາສາດ": 9005,
      "ສຳຫລັບ": 9006,
      "ຂອງພວກເຮົາ": 9007,
      "rối": 9008,
      "ຊົ່ວ": 9009,
      "ດໍາ": 9010,
      "ກ້າວ": 9011,
      "46": 9012,
      "Xô": 9013,
      "tỏa": 9014,
      "xanh": 9015,
      "ແຮ": 9016,
      "ອາດຈະ": 9017,
      "Thảo": 9018,
      "ນະຄອນຫຼວງວຽງຈັນ": 9019,
      "ອັດຕາ": 9020,
      "ịa": 9021,
      "ຽວກັນ": 9022,
      "vui": 9023,
      "mỏ": 9024,
      "rad": 9025,
      "ແນນ": 9026,
      "ສະໝ": 9027,
      "đồn": 9028,
      "ເຂັ້ມ": 9029,
      "Tam": 9030,
      "nửa": 9031,
      "ສູນກາງ": 9032,
      "enko": 9033,
      "lẫn": 9034,
      "ແນະນ": 9035,
      "nghèo": 9036,
      "ເຂົາເຈົ້າ": 9037,
      "ລະດ": 9038,
      "Hoàn": 9039,
      "ພະຍາຍາມ": 9040,
      "Nhưỡng": 9041,
      "ທ໌": 9042,
      "yên": 9043,
      "ຍານ": 9044,
      "ທາງດ້ານ": 9045,
      "ປະກອນ": 9046,
      "ທັງຫມົດ": 9047,
      "mir": 9048,
      "ເຈັບ": 9049,
      "ຮັບຜິດຊອບ": 9050,
      "ມິ": 9051,
      "ລະບຽບ": 9052,
      "ພໍ": 9053,
      "hắn": 9054,
      "ເຂົ້າຫາ": 9055,
      "ກະທົບ": 9056,
      "thùng": 9057,
      "bùng": 9058,
      "ການພັດທະນາ": 9059,
      "ການຮ່ວມມື": 9060,
      "hô": 9061,
      "ອຳນ": 9062,
      "ສະເໜີ": 9063,
      "Cho": 9064,
      "ຈິດ": 9065,
      "ໂທດ": 9066,
      "quý": 9067,
      "nguyện": 9068,
      "Quỳnh": 9069,
      "tro": 9070,
      "ngắn": 9071,
      "ປິດ": 9072,
      "ill": 9073,
      "ຊະ": 9074,
      "ແຜ່": 9075,
      "mưa": 9076,
      "tiệm": 9077,
      "ke": 9078,
      "ເທິງ": 9079,
      "ກີບ": 9080,
      "suất": 9081,
      "Ser": 9082,
      "chữ": 9083,
      "cơn": 9084,
      "ວິທະຍາໄລ": 9085,
      "ເຈົ້າໜ້າທີ່": 9086,
      "thuyết": 9087,
      "ໜັງ": 9088,
      "ເທັກໂນໂລຈີ": 9089,
      "wa": 9090,
      "ລາງ": 9091,
      "ກິນ": 9092,
      "--": 9093,
      "ປົກຄອງ": 9094,
      "đọc": 9095,
      "MH": 9096,
      "hạng": 9097,
      "ການເມືອງ": 9098,
      "đợt": 9099,
      "ລະອຽດ": 9100,
      "ຂະແໜ": 9101,
      "ẫy": 9102,
      "phái": 9103,
      "BKS": 9104,
      "ladi": 9105,
      "ຊະນະ": 9106,
      "Hơn": 9107,
      "Campu": 9108,
      "Cô": 9109,
      "Sài": 9110,
      "ãnh": 9111,
      "rác": 9112,
      "ທະເລ": 9113,
      "Campuchia": 9114,
      "khóc": 9115,
      "Máy": 9116,
      "ສຳນັກ": 9117,
      "ອິ": 9118,
      "Giấy": 9119,
      "01": 9120,
      "ຖະໜ": 9121,
      "Gu": 9122,
      "cậu": 9123,
      "mẽ": 9124,
      "ໂກ": 9125,
      "ລິກາ": 9126,
      "lật": 9127,
      "Đặc": 9128,
      "ẹt": 9129,
      "tine": 9130,
      "52": 9131,
      "Thực": 9132,
      "QL": 9133,
      "chỉnh": 9134,
      "khổ": 9135,
      "Crim": 9136,
      ");": 9137,
      "'.": 9138,
      "đoán": 9139,
      "Vương": 9140,
      "ຈັບ": 9141,
      "trùm": 9142,
      "ຄວບ": 9143,
      "ໝາກ": 9144,
      "Tim": 9145,
      "ແຄ": 9146,
      "ເລີຍ": 9147,
      "sóc": 9148,
      "Vladi": 9149,
      "ຄວ້າ": 9150,
      "nhật": 9151,
      "ມື້ນ": 9152,
      "ແອັຟ": 9153,
      "ອາຣ໌": 9154,
      "kara": 9155,
      "ແລກປ່ຽນ": 9156,
      "ຕິດຕາມພວກເຮົາ": 9157,
      "quảng": 9158,
      "ພໍ່": 9159,
      "ສຳຫລັບເຂົ້າຫາ": 9160,
      "ສຳເລັດ": 9161,
      "ສໍາຄັນ": 9162,
      "tàn": 9163,
      "Trịnh": 9164,
      "ວ່າການ": 9165,
      "ການສຶກສາ": 9166,
      "ord": 9167,
      "lạnh": 9168,
      "Sen": 9169,
      "nhậu": 9170,
      "ນໍາໃຊ້": 9171,
      "Crimea": 9172,
      "ຮຽກຮ້ອງ": 9173,
      "Thiếu": 9174,
      "ເຊົ້າ": 9175,
      "ຕັດສິນ": 9176,
      "ປະໂຫຍດ": 9177,
      "Cẩm": 9178,
      "ເຮົ": 9179,
      "tralia": 9180,
      "ນີ້ແມ່ນ": 9181,
      "ada": 9182,
      "ຫ້ອງການ": 9183,
      "ອະນຸຍາດ": 9184,
      "Chiếc": 9185,
      "ອັກ": 9186,
      "kia": 9187,
      "Lạp": 9188,
      "Australia": 9189,
      "ຊຸກຍູ້": 9190,
      "ພຶດ": 9191,
      "cổng": 9192,
      "cấu": 9193,
      "ຊອກຫາ": 9194,
      "Fran": 9195,
      "tường": 9196,
      "xếp": 9197,
      "ດົນ": 9198,
      "ຍີ່ປຸ່ນ": 9199,
      "dưỡng": 9200,
      "pe": 9201,
      "39": 9202,
      "lượt": 9203,
      "ger": 9204,
      "ຕາເວັນ": 9205,
      "bắc": 9206,
      "ợn": 9207,
      "thách": 9208,
      "én": 9209,
      "Quý": 9210,
      "thưởng": 9211,
      "ເດັກນ້ອຍ": 9212,
      "Gòn": 9213,
      "vẻ": 9214,
      "ຮ້ານ": 9215,
      "ic": 9216,
      "Quan": 9217,
      "ຊ່ວຍເຫຼືອ": 9218,
      "Thạnh": 9219,
      "ຍິ່ງ": 9220,
      "ສະນະ": 9221,
      "tắt": 9222,
      "ແສງ": 9223,
      "ປັນ": 9224,
      "bão": 9225,
      "າມະ": 9226,
      "Nạn": 9227,
      "ງ່າຍ": 9228,
      "Khoa": 9229,
      "ທະວີຕ": 9230,
      "ເບິ່ງທາງເຟສບຸກ": 9231,
      "ເບິ່ງທາງທະວີຕ": 9232,
      "ເບິ່ງທາງທະວີຕເຕີ້": 9233,
      "ເມີ": 9234,
      "khoan": 9235,
      "ວານ": 9236,
      "ວິທີການ": 9237,
      "Vũng": 9238,
      "ດຽວກັນ": 9239,
      "Trắng": 9240,
      "ສະຫນ": 9241,
      "ບັງ": 9242,
      "ent": 9243,
      "ຕໍ": 9244,
      "cưỡng": 9245,
      "tuyển": 9246,
      "ໝູ່": 9247,
      "ón": 9248,
      "Tấn": 9249,
      "lắng": 9250,
      "ອາເມລິກາ": 9251,
      "ສະຖານທີ່": 9252,
      "ສາທາ": 9253,
      "48": 9254,
      "ໃນໄລຍະ": 9255,
      "leo": 9256,
      "tiêm": 9257,
      "dựa": 9258,
      "giáp": 9259,
      "ຫຼຸດ": 9260,
      "ອຸປະກອນ": 9261,
      "ໃຫ້ການ": 9262,
      "ສະໜັບ": 9263,
      "lưới": 9264,
      "gu": 9265,
      "Trao": 9266,
      "ຫວັງ": 9267,
      "ບອກ": 9268,
      "Giáo": 9269,
      "ປະສິດທິ": 9270,
      "Thi": 9271,
      "ຢູ່ທີ່": 9272,
      "ເຜົ່າ": 9273,
      "Hiền": 9274,
      "ngọn": 9275,
      "Paris": 9276,
      "triệt": 9277,
      "Cả": 9278,
      "ກັບການ": 9279,
      "ວັດທະນະທຳ": 9280,
      "than": 9281,
      "đài": 9282,
      "ໄອ": 9283,
      "ເຮືອ": 9284,
      "khích": 9285,
      "ສະໄໝ": 9286,
      "khói": 9287,
      "Nhóm": 9288,
      "ກຳນົດ": 9289,
      "ຂວາງ": 9290,
      "ພະລັງ": 9291,
      "CB": 9292,
      "thẻ": 9293,
      "bế": 9294,
      "ອຸດສາຫະ": 9295,
      "ເວັບໄຊທ໌": 9296,
      "ກຽດ": 9297,
      "ໂຊ": 9298,
      "Thụy": 9299,
      "úa": 9300,
      "ປຶກສາ": 9301,
      "ner": 9302,
      "ທຳມະ": 9303,
      "hỏng": 9304,
      "kém": 9305,
      "ເຄີຍ": 9306,
      "ປະກອບສ່ວນ": 9307,
      "son": 9308,
      "Thạch": 9309,
      "ກຽມ": 9310,
      "đợi": 9311,
      "sót": 9312,
      "ປ່ຽນແປງ": 9313,
      "ປັກ": 9314,
      "Động": 9315,
      "chốt": 9316,
      "Bằng": 9317,
      "ສິ່ງທີ່": 9318,
      "bò": 9319,
      "Tiếp": 9320,
      "ເບີດ": 9321,
      "lắp": 9322,
      "ຄຸນນະ": 9323,
      "ຣິກ": 9324,
      "ອານ": 9325,
      "ýt": 9326,
      "ນິກ": 9327,
      "ngoái": 9328,
      "Vladimir": 9329,
      "TQ": 9330,
      "trông": 9331,
      "ພອນ": 9332,
      "khiếu": 9333,
      "ບັນລຸ": 9334,
      "thôi": 9335,
      "tổn": 9336,
      "vắng": 9337,
      "hộp": 9338,
      "ຄອມ": 9339,
      "ທະນາຄານ": 9340,
      "thả": 9341,
      "Bang": 9342,
      "phim": 9343,
      "ຊູ": 9344,
      "kênh": 9345,
      "ດາວ": 9346,
      "Bến": 9347,
      "thép": 9348,
      "quỹ": 9349,
      "ພີ": 9350,
      "Sing": 9351,
      "ary": 9352,
      "BV": 9353,
      "bốn": 9354,
      "98": 9355,
      "Ale": 9356,
      "ລອງ": 9357,
      "chạm": 9358,
      "ສະຫວັນ": 9359,
      "ກູ້": 9360,
      "phỏng": 9361,
      "kov": 9362,
      "mm": 9363,
      "ຈິກ": 9364,
      "ass": 9365,
      "ຕາຍ": 9366,
      "Lo": 9367,
      "ຈັດຕັ້ງປະຕິບັດ": 9368,
      "York": 9369,
      "erry": 9370,
      "Đầu": 9371,
      "xả": 9372,
      "77": 9373,
      "ASE": 9374,
      "AD": 9375,
      "ສາວ": 9376,
      "thiêu": 9377,
      "trào": 9378,
      "ກາດ": 9379,
      "ໂທລະສັບ": 9380,
      "đỉnh": 9381,
      "ນະໂຍບາຍ": 9382,
      "ສ້າງຕັ້ງ": 9383,
      "Pales": 9384,
      "hư": 9385,
      "Lãnh": 9386,
      "ຕື້": 9387,
      "hẹn": 9388,
      "Xe": 9389,
      "ຂາດ": 9390,
      "kim": 9391,
      "ino": 9392,
      "dịp": 9393,
      "ປອດໄພ": 9394,
      "camera": 9395,
      "lựa": 9396,
      "buồn": 9397,
      "ຂະບວນ": 9398,
      "ກິດຈະ": 9399,
      "ສາທາລະນະ": 9400,
      "ຫັນ": 9401,
      "ượn": 9402,
      "đoan": 9403,
      "ທີ່ຖືກ": 9404,
      "Se": 9405,
      "54": 9406,
      "oke": 9407,
      "ດັ່ງນັ້ນ": 9408,
      "Tất": 9409,
      "600": 9410,
      "San": 9411,
      "Chương": 9412,
      "ແກ້ວ": 9413,
      "tháo": 9414,
      "ຊານ": 9415,
      "thận": 9416,
      "èm": 9417,
      "ສື່": 9418,
      "ເພື່ອໃຫ້": 9419,
      "VKSND": 9420,
      "ົ່ານັ້ນ": 9421,
      "ເຕັກໂນໂລຊີ": 9422,
      "Lưu": 9423,
      "Cái": 9424,
      "Mới": 9425,
      "ຜ່ອນ": 9426,
      "ສະໜັບສະໜ": 9427,
      "nỗi": 9428,
      "Singap": 9429,
      "ôtô": 9430,
      "Ta": 9431,
      "iếng": 9432,
      "TC": 9433,
      "ຕຸລາ": 9434,
      "ກັນຍາ": 9435,
      "hoạn": 9436,
      "nại": 9437,
      "່ຳ": 9438,
      "Singapore": 9439,
      "TS": 9440,
      "ປື": 9441,
      "ເຂົ້າໄປ": 9442,
      "est": 9443,
      "kín": 9444,
      "ັສ": 9445,
      "ỉa": 9446,
      "ທຣຳ": 9447,
      "ປ່ອຍ": 9448,
      "ff": 9449,
      "ອີງ": 9450,
      "po": 9451,
      "tic": 9452,
      "49": 9453,
      "cuốn": 9454,
      "Diễn": 9455,
      "Palestine": 9456,
      "NH": 9457,
      "Tú": 9458,
      "ຈາກການ": 9459,
      "PL": 9460,
      "xông": 9461,
      "trưng": 9462,
      "ບູນ": 9463,
      "ໃນຕອນ": 9464,
      "ທັດ": 9465,
      "ຮູ້ວ່າ": 9466,
      "800": 9467,
      "ພາດ": 9468,
      "dương": 9469,
      "Bra": 9470,
      "Cà": 9471,
      "150": 9472,
      "web": 9473,
      "ari": 9474,
      "Thăng": 9475,
      "ສະຖາ": 9476,
      "ໂດຍການ": 9477,
      "xưng": 9478,
      "chẽ": 9479,
      "vo": 9480,
      "ພະຍາກອນ": 9481,
      "Kho": 9482,
      "ຂັບ": 9483,
      "ite": 9484,
      "hầm": 9485,
      "ແມັດ": 9486,
      "ທີ່ບໍ່": 9487,
      ".,": 9488,
      "ກຳມະການ": 9489,
      "xưởng": 9490,
      "đạp": 9491,
      "Mau": 9492,
      "ບົດບາດ": 9493,
      "ເທີ": 9494,
      "ຄັ້ງນີ້": 9495,
      "ຢັນ": 9496,
      "ເວົ້າວ່າ": 9497,
      "tả": 9498,
      "ush": 9499,
      "ີ້ມ": 9500,
      "ຢຸດ": 9501,
      "mùa": 9502,
      "ໃນວັນ": 9503,
      "hoãn": 9504,
      "gấp": 9505,
      "tt": 9506,
      "ເສັ້ນທາງ": 9507,
      "ໄດ້ຖືກ": 9508,
      "mo": 9509,
      "ລຳ": 9510,
      "ສະຫຼອງ": 9511,
      "ຫ້າ": 9512,
      "mảnh": 9513,
      "Ber": 9514,
      "ver": 9515,
      "ùn": 9516,
      "dội": 9517,
      "ຕໍ່ໄປ": 9518,
      "ເອີ້ນ": 9519,
      "ສະຫາຍ": 9520,
      "ຊວນ": 9521,
      "ປະຈຸບັນ": 9522,
      "ຸບ": 9523,
      "kiểu": 9524,
      "ເຕະ": 9525,
      "chai": 9526,
      "dần": 9527,
      "43": 9528,
      "ເກາະ": 9529,
      "42": 9530,
      "ເດຍ": 9531,
      "ễu": 9532,
      "ພວມ": 9533,
      "kiên": 9534,
      "Hoài": 9535,
      "nhắn": 9536,
      "ກອງທັບ": 9537,
      "ຄີ": 9538,
      "2007": 9539,
      "ASEAN": 9540,
      "Bank": 9541,
      "rab": 9542,
      "Kr": 9543,
      "Lắk": 9544,
      "nhãn": 9545,
      "Xã": 9546,
      "ປະທານປະເທດ": 9547,
      "ala": 9548,
      "gà": 9549,
      "ລູກຄ້າ": 9550,
      "ven": 9551,
      "lối": 9552,
      "nhiệt": 9553,
      "ວ່າຈະ": 9554,
      "ສົ່ງເສີມ": 9555,
      "ຫຼາຍກວ່າ": 9556,
      "lũ": 9557,
      "ຂົນ": 9558,
      "ພະຈິກ": 9559,
      "Đạt": 9560,
      "Đô": 9561,
      "ສະດ": 9562,
      "ເຈຍ": 9563,
      "ຫາລື": 9564,
      "ທ່ານນາງ": 9565,
      "tị": 9566,
      "Liêm": 9567,
      "ຄົ້ນຄວ້າ": 9568,
      "bào": 9569,
      "ຍາມ": 9570,
      "ກ່ວ": 9571,
      "ເຣຍ": 9572,
      "ຈານ": 9573,
      "tặng": 9574,
      "ສິ່ງແວດລ້ອມ": 9575,
      "ກຸມ": 9576,
      "ຄຸນນະພາບ": 9577,
      "tặc": 9578,
      "ຈອນ": 9579,
      "ລ້ຽງ": 9580,
      "thai": 9581,
      "bè": 9582,
      "ຄວາມເປັນ": 9583,
      "ທ້ອງຖິ່ນ": 9584,
      "cờ": 9585,
      "ເຫດການ": 9586,
      "Thịnh": 9587,
      "56": 9588,
      "đền": 9589,
      "CO": 9590,
      "ພົບປະ": 9591,
      "Ja": 9592,
      "all": 9593,
      "ໃນເວລາ": 9594,
      "%.": 9595,
      "Trị": 9596,
      "chậm": 9597,
      "Ukraina": 9598,
      "Ti": 9599,
      "ກວ້າງ": 9600,
      "06": 9601,
      "dụ": 9602,
      "ດີດ": 9603,
      "ພຸດ": 9604,
      "xứ": 9605,
      "ຊິ": 9606,
      "ໄດ້ຈັດ": 9607,
      "02": 9608,
      "ສາຫະກິດ": 9609,
      "thiên": 9610,
      "ຊີ້": 9611,
      "Bé": 9612,
      "ເປີ": 9613,
      "bật": 9614,
      "ຸ່ງ": 9615,
      "ຂົງເຂດ": 9616,
      "St": 9617,
      "nhát": 9618,
      "Quy": 9619,
      "etsk": 9620,
      "den": 9621,
      "ệt": 9622,
      "Sp": 9623,
      "Ca": 9624,
      "Po": 9625,
      "ບັນຊີ": 9626,
      "mệnh": 9627,
      "đèn": 9628,
      "ມ່ວນ": 9629,
      "ມາດຕະ": 9630,
      "ụt": 9631,
      "ປະຫວັດ": 9632,
      "Quá": 9633,
      "hứa": 9634,
      "09": 9635,
      "ເສຍຊີວິດ": 9636,
      "ທີ່ຜ່ານມາ": 9637,
      "ພາກສ່ວນ": 9638,
      "ຊັບພະຍາກອນ": 9639,
      "giận": 9640,
      "ອອກແບບ": 9641,
      "đua": 9642,
      "ທຳມະຊາດ": 9643,
      "ເຕັມ": 9644,
      "No": 9645,
      "ແຫຼ່ງ": 9646,
      "osh": 9647,
      "ຣິກາ": 9648,
      "for": 9649,
      "bê": 9650,
      "Chung": 9651,
      "dã": 9652,
      "41": 9653,
      "Dung": 9654,
      "ໂດຍສະເພາະ": 9655,
      "ເລິກ": 9656,
      "mã": 9657,
      "Kế": 9658,
      "ວິສາຫະກິດ": 9659,
      "ສຸຂະ": 9660,
      "per": 9661,
      "vỉa": 9662,
      "ີກ": 9663,
      "Bài": 9664,
      "cưới": 9665,
      "ẫm": 9666,
      "2020": 9667,
      "ເງື່ອນ": 9668,
      "miễn": 9669,
      "ເອກະສານ": 9670,
      "ອັດຕະ": 9671,
      "of": 9672,
      "ທາດ": 9673,
      "tấm": 9674,
      "ປູກ": 9675,
      "ຖະໜົນ": 9676,
      "by": 9677,
      "ແຮງງານ": 9678,
      "gỡ": 9679,
      "ຮຸນ": 9680,
      "ທີ່ດີທີ່ສຸດ": 9681,
      "sập": 9682,
      "ທີ່ກ່ຽວຂ້ອງ": 9683,
      "thiệu": 9684,
      "ົ່ມ": 9685,
      "Tỉnh": 9686,
      "ພະຍາດ": 9687,
      "ົ່ານີ້": 9688,
      "Ital": 9689,
      "ting": 9690,
      "Donetsk": 9691,
      "Xuyên": 9692,
      "ສະໜອງ": 9693,
      "xách": 9694,
      "ພະລັງງານ": 9695,
      "ນຳໃຊ້": 9696,
      "ເຂົ້າໃຈ": 9697,
      "ei": 9698,
      "tuyệt": 9699,
      "ຕູ": 9700,
      "ໃຫ້ເຫັນ": 9701,
      "ໂຈມຕີ": 9702,
      "Bi": 9703,
      "ກໍລະກົດ": 9704,
      "xô": 9705,
      "ຕັນ": 9706,
      "Cuba": 9707,
      "LD": 9708,
      "Tok": 9709,
      "Cận": 9710,
      "ມື້ນີ້": 9711,
      "ຈະນ": 9712,
      "ຮຽນພາສາອັງກິດ": 9713,
      "ເລືອກຕັ້ງ": 9714,
      "karaoke": 9715,
      "chảy": 9716,
      "44": 9717,
      "ມັງ": 9718,
      "ເຈລະ": 9719,
      "ບຸກຄົນ": 9720,
      "ກ່ວາ": 9721,
      "ິວ": 9722,
      "Thống": 9723,
      "ຕຸ້ຍ": 9724,
      "ສຫລ": 9725,
      "ມານີ": 9726,
      "NN": 9727,
      "gas": 9728,
      "ສິງຫາ": 9729,
      "Giới": 9730,
      "Vid": 9731,
      "ຄັດ": 9732,
      "ສາລະ": 9733,
      "tây": 9734,
      "ມູນຄ່າ": 9735,
      "ທໍາອິດ": 9736,
      "lôi": 9737,
      "m2": 9738,
      "ທຸກໆ": 9739,
      "ທ້າວ": 9740,
      "giàu": 9741,
      "lò": 9742,
      "TV": 9743,
      "ຈໍ": 9744,
      "ຖ້າຫາກ": 9745,
      "Kerry": 9746,
      "ຄາມ": 9747,
      "58": 9748,
      "ềm": 9749,
      "Times": 9750,
      "mượn": 9751,
      "ສະຫະພັນ": 9752,
      "Đường": 9753,
      "dò": 9754,
      "ແຜ່ນ": 9755,
      "ຣັດເຊຍ": 9756,
      "kẹt": 9757,
      "ĐB": 9758,
      "khuôn": 9759,
      "Trí": 9760,
      "amas": 9761,
      "ສູດ": 9762,
      "XH": 9763,
      "mừng": 9764,
      "Hol": 9765,
      "ເກີນ": 9766,
      "ຖ່າຍ": 9767,
      "ID": 9768,
      "mét": 9769,
      "De": 9770,
      "Cách": 9771,
      "ເສບ": 9772,
      "ney": 9773,
      "ຜົນກະທົບ": 9774,
      "ເປັນຕົ້ນ": 9775,
      "Tờ": 9776,
      "ຢືນຢັນ": 9777,
      "ຮ່າ": 9778,
      "kèm": 9779,
      "ຂາວ": 9780,
      "mắn": 9781,
      "ໜ້ອຍ": 9782,
      "vỏ": 9783,
      "ຄວບຄຸມ": 9784,
      "51": 9785,
      "Bar": 9786,
      "xo": 9787,
      "ທ່ານສາມາດ": 9788,
      "Tokyo": 9789,
      "dám": 9790,
      "ສົນໃຈ": 9791,
      "line": 9792,
      "za": 9793,
      "ລິດ": 9794,
      "ris": 9795,
      "Abe": 9796,
      "ຈິ": 9797,
      "ໜັງສື": 9798,
      "hoại": 9799,
      ".\".": 9800,
      "ເຕີບ": 9801,
      "láng": 9802,
      "trồng": 9803,
      "the": 9804,
      "già": 9805,
      "ຸ້ນ": 9806,
      "59": 9807,
      "ຄ້າຍ": 9808,
      "Tên": 9809,
      "ສະຫງົບ": 9810,
      "Hạnh": 9811,
      "thờ": 9812,
      "hero": 9813,
      "53": 9814,
      "Ben": 9815,
      "ww": 9816,
      "ການເງິນ": 9817,
      "Video": 9818,
      "ía": 9819,
      "eda": 9820,
      "ື່ງ": 9821,
      "Song": 9822,
      "ell": 9823,
      "ຂັດ": 9824,
      "bụng": 9825,
      "Hiến": 9826,
      "ຢັ້ງ": 9827,
      "ຍາວ": 9828,
      "giàn": 9829,
      "buýt": 9830,
      "ani": 9831,
      "ຢ່າງເປັນ": 9832,
      "ການພົວພັນ": 9833,
      "môn": 9834,
      "ເນັ້ນ": 9835,
      "້ໍາ": 9836,
      "tim": 9837,
      "SA": 9838,
      "mổ": 9839,
      "ສຸດຍອດ": 9840,
      "sh": 9841,
      "ວຸດ": 9842,
      "ເລ່ຍ": 9843,
      "trải": 9844,
      "Por": 9845,
      "ທ່ານນາຍົກລັດຖະມົນຕີ": 9846,
      "ນານ": 9847,
      "ນອກຈາກ": 9848,
      "DN": 9849,
      "hương": 9850,
      "ຮັບປະກັນ": 9851,
      "ຄະແນນ": 9852,
      "ຍ້າຍ": 9853,
      "ຕະຫລ": 9854,
      "ນິວ": 9855,
      "Gad": 9856,
      "ຊີ້ນ": 9857,
      "ເກືອບ": 9858,
      "ວັງ": 9859,
      "ld": 9860,
      "້ວງ": 9861,
      "Win": 9862,
      "tông": 9863,
      "ການເຄື່ອນໄຫວ": 9864,
      "trôi": 9865,
      "Hằng": 9866,
      "Mas": 9867,
      "ềng": 9868,
      "giềng": 9869,
      "xóa": 9870,
      "Nhất": 9871,
      "ຮູ້ສຶກ": 9872,
      "Net": 9873,
      "uk": 9874,
      "ຈາລະ": 9875,
      "ມາຈາກ": 9876,
      "!!": 9877,
      "700": 9878,
      "ຖຸນາ": 9879,
      "rà": 9880,
      "ສຸຂະພາບ": 9881,
      "nhượng": 9882,
      "trần": 9883,
      "ຕະພາບ": 9884,
      "ກາຍເປັນ": 9885,
      "ການຕ່າງປະເທດ": 9886,
      "gam": 9887,
      "tràn": 9888,
      "Cổ": 9889,
      "ຫນາດ": 9890,
      "Khê": 9891,
      "Sam": 9892,
      "lưng": 9893,
      "ost": 9894,
      "ບຽນ": 9895,
      "Thừa": 9896,
      "ເຕີມ": 9897,
      "HS": 9898,
      "bọc": 9899,
      "sạch": 9900,
      "Mer": 9901,
      "ປະຈໍາ": 9902,
      "Gần": 9903,
      "ຮູບແບບ": 9904,
      "tống": 9905,
      "57": 9906,
      "Nữ": 9907,
      "DC": 9908,
      "túc": 9909,
      "Clin": 9910,
      "củng": 9911,
      "Ang": 9912,
      "ປົວ": 9913,
      "tha": 9914,
      "our": 9915,
      "bar": 9916,
      "lề": 9917,
      "ຊຽງ": 9918,
      "ທຽບ": 9919,
      "Min": 9920,
      "ທະສາດ": 9921,
      "ພາກພື້ນ": 9922,
      "ໝັ້ນຄົງ": 9923,
      "móc": 9924,
      "ສົມບູນ": 9925,
      "ທໍ": 9926,
      "ເຊື່ອມຕໍ່": 9927,
      "tân": 9928,
      "vườn": 9929,
      "duyệt": 9930,
      "03": 9931,
      "Bởi": 9932,
      "IV": 9933,
      "cặp": 9934,
      "rụi": 9935,
      "Truyền": 9936,
      "Tri": 9937,
      "gió": 9938,
      "thao": 9939,
      "Ex": 9940,
      "radar": 9941,
      "ເພີ່ມຂຶ້ນ": 9942,
      "ໂດລາ": 9943,
      "phổ": 9944,
      "đai": 9945,
      "Lạng": 9946,
      "ເປົ້າໝາຍ": 9947,
      "Đăng": 9948,
      "aku": 9949,
      "Qa": 9950,
      "ຜູ້ນຳ": 9951,
      "Ku": 9952,
      "Em": 9953,
      "ທີ່ຢູ່": 9954,
      "ອະທິ": 9955,
      "Be": 9956,
      "ດອກ": 9957,
      "tuân": 9958,
      "les": 9959,
      "ສະຖາບັນ": 9960,
      "ໂຮມ": 9961,
      "Ven": 9962,
      "hài": 9963,
      "ຮ້ອຍ": 9964,
      "lẻ": 9965,
      "OR": 9966,
      "ngõ": 9967,
      "ນ້ອງ": 9968,
      "ສັນຕິ": 9969,
      "mộ": 9970,
      "Riêng": 9971,
      "Clinton": 9972,
      "ສະເຫ": 9973,
      "67": 9974,
      "cơm": 9975,
      "ເດັ່ນ": 9976,
      "mỹ": 9977,
      "Ne": 9978,
      "ຟຸກ": 9979,
      "Canada": 9980,
      "ຄະດີ": 9981,
      "lợn": 9982,
      "khuyến": 9983,
      "ເຄາະ": 9984,
      "ບົດຮຽນ": 9985,
      "ຕະຫຼອດ": 9986,
      "Thư": 9987,
      "ພວກເຮົ": 9988,
      "ສິກຳ": 9989,
      "ປ່າໄມ້": 9990,
      "Pr": 9991,
      "rạng": 9992,
      "For": 9993,
      "dọc": 9994,
      "alt": 9995,
      "ຸງ": 9996,
      "ລັກສະນະ": 9997,
      "ສົກ": 9998,
      "ອະດີດ": 9999,
      "thầy": 10000,
      "ນັກຮຽນ": 10001,
      "ເຕັກ": 10002,
      "ເທົ່ານັ້ນ": 10003,
      "non": 10004,
      "ການລົງທຶນ": 10005,
      "08": 10006,
      "heroin": 10007,
      "LA": 10008,
      "ເລຂາທິການ": 10009,
      "ອັນດັບ": 10010,
      "Myan": 10011,
      "ຖະແຫຼ": 10012,
      "ຕາງ": 10013,
      "đụng": 10014,
      "ອີຣ": 10015,
      "lang": 10016,
      "ji": 10017,
      "tẩu": 10018,
      "ví": 10019,
      "TX": 10020,
      "ìa": 10021,
      "າມາ": 10022,
      "ທັນວາ": 10023,
      "dường": 10024,
      "ກະຕິ": 10025,
      "ຂະນະທີ່": 10026,
      "ແນວໃດ": 10027,
      "2006": 10028,
      "ື້ອງ": 10029,
      "địch": 10030,
      "ci": 10031,
      "ຸ່ນ": 10032,
      "huống": 10033,
      "Myanmar": 10034,
      "Mor": 10035,
      "Rom": 10036,
      "ພ້ອມດ້ວຍ": 10037,
      "ສະໜາ": 10038,
      "ຍືນ": 10039,
      "ດຶງ": 10040,
      "99": 10041,
      "rắn": 10042,
      "ທັງສອງ": 10043,
      "lấn": 10044,
      "ນະຄອນຫລວງ": 10045,
      "NLĐ": 10046,
      "ຝຶກອົບຮົມ": 10047,
      "Ru": 10048,
      "Căn": 10049,
      "ເປັນຜູ້": 10050,
      "ແຕກຕ່າງ": 10051,
      "ອອກຈາກ": 10052,
      "bỏng": 10053,
      "Tham": 10054,
      "ຂະຫນາດ": 10055,
      "ພິຈາລະ": 10056,
      "ຍັງບໍ່": 10057,
      "Qaeda": 10058,
      "sp": 10059,
      "ຍິນ": 10060,
      "lus": 10061,
      "ນອນ": 10062,
      "ທຳອິດ": 10063,
      "hỗn": 10064,
      "rào": 10065,
      "ຖິ": 10066,
      "Sem": 10067,
      "ເຫຼີມ": 10068,
      "Gaz": 10069,
      "ຍຸດທະສາດ": 10070,
      "mùi": 10071,
      "dafi": 10072,
      "ເປັນປະທານ": 10073,
      "ພາຍໃຕ້": 10074,
      "hiến": 10075,
      "ເລີ່ມຕົ້ນ": 10076,
      "ຂໍ້ຕົກລົງ": 10077,
      "tùy": 10078,
      "ເນື້ອໃນ": 10079,
      "gục": 10080,
      "ຈະມີ": 10081,
      "CQ": 10082,
      "ສະດວກ": 10083,
      "Ko": 10084,
      "vội": 10085,
      "ຄວາມຄິດ": 10086,
      "cai": 10087,
      "ຂ້າມ": 10088,
      "ພວກເຂົາເຈົ້າ": 10089,
      "Dư": 10090,
      "ຕໍ່ການ": 10091,
      "gen": 10092,
      "van": 10093,
      "Cố": 10094,
      "ໃຊ": 10095,
      "ຂອງປະເທດ": 10096,
      "ປາຍ": 10097,
      "ເລັກ": 10098,
      "cean": 10099,
      "cứng": 10100,
      "hát": 10101,
      "ມິຖຸນາ": 10102,
      "ຍອມ": 10103,
      "ເກີດຂຶ້ນ": 10104,
      "ony": 10105,
      "gra": 10106,
      "Xem": 10107,
      "PT": 10108,
      "say": 10109,
      "ຄົບຮອບ": 10110,
      "ơm": 10111,
      "Gaddafi": 10112,
      "ຕົວຢ່າງ": 10113,
      "Ocean": 10114,
      "khảo": 10115,
      "ựng": 10116,
      "ອໍານ": 10117,
      "ຢູ່ນ": 10118,
      "ຕໍາ": 10119,
      "ີບ": 10120,
      "ເຫຼົ່ານີ້": 10121,
      "dính": 10122,
      "màn": 10123,
      "đỗ": 10124,
      "QT": 10125,
      "ທ້ວງ": 10126,
      "ຜົນງານ": 10127,
      "đẻ": 10128,
      "lines": 10129,
      "nảy": 10130,
      "ເຂື່ອນ": 10131,
      "gián": 10132,
      "ກໍານ": 10133,
      "ໄຊຍະ": 10134,
      "ສະຫງ": 10135,
      "ລາງວັນ": 10136,
      "ສຸມ": 10137,
      "Moh": 10138,
      "Kiến": 10139,
      "nát": 10140,
      "ກະສິກຳ": 10141,
      "ຄວາມສາມາດ": 10142,
      "Trả": 10143,
      "ເດັກຍິງ": 10144,
      "Ngãi": 10145,
      "ຂະແໜງ": 10146,
      "ພຶດສະພາ": 10147,
      "ສະໜາມ": 10148,
      "KH": 10149,
      "thợ": 10150,
      "ເງື່ອນໄຂ": 10151,
      "nhầm": 10152,
      "men": 10153,
      "las": 10154,
      "tiếc": 10155,
      "ຜູ້ທີ່": 10156,
      "ຕູ້": 10157,
      "khung": 10158,
      "ngũ": 10159,
      "ປົກກະຕິ": 10160,
      "đậu": 10161,
      "ສູງສຸດ": 10162,
      "ພາກັນ": 10163,
      "cột": 10164,
      "ເອົາໃຈ": 10165,
      "Thiện": 10166,
      "ຮົບ": 10167,
      "st": 10168,
      "ທົ່ວປະເທດ": 10169,
      "sen": 10170,
      "ສໍາເລັດ": 10171,
      "Mỗi": 10172,
      "ມາກ": 10173,
      "ຕໍ່ສູ້": 10174,
      "ົ້ມ": 10175,
      "hồng": 10176,
      "đeo": 10177,
      "05": 10178,
      "Kon": 10179,
      "Cựu": 10180,
      "ໂນ້ຍ": 10181,
      "Cuối": 10182,
      "Trạm": 10183,
      "tiềm": 10184,
      "emen": 10185,
      "Giết": 10186,
      "Seo": 10187,
      "Cas": 10188,
      "ຊົງ": 10189,
      "120": 10190,
      "ເຕືອນ": 10191,
      "Liêu": 10192,
      "Lầu": 10193,
      "lắm": 10194,
      "07": 10195,
      "ຜັນ": 10196,
      "thánh": 10197,
      "ສົດ": 10198,
      "ອະນາ": 10199,
      "Úc": 10200,
      "đựng": 10201,
      "ຮັບຮອງ": 10202,
      "ແໜ່ງ": 10203,
      "Tín": 10204,
      "Ngư": 10205,
      "....": 10206,
      "oshenko": 10207,
      "ອຸດົມ": 10208,
      "ຂະບວນການ": 10209,
      "ສະໜັບສະໜູນ": 10210,
      "ເວນ": 10211,
      "ເກມນີ້": 10212,
      "ຮ້ອນ": 10213,
      "ືດ": 10214,
      "dược": 10215,
      "ປະສົງ": 10216,
      "ມຽນ": 10217,
      "ປະຕິວັດ": 10218,
      "ນິຍົມ": 10219,
      "fa": 10220,
      "chào": 10221,
      "ແວ": 10222,
      "VI": 10223,
      "2000": 10224,
      "ອິສ": 10225,
      "FA": 10226,
      "Med": 10227,
      "68": 10228,
      "ກໍານົດ": 10229,
      "ໂຮ່": 10230,
      "ເຫລືອ": 10231,
      "tre": 10232,
      "kok": 10233,
      "Xây": 10234,
      "bám": 10235,
      "niềm": 10236,
      "mũi": 10237,
      "ສ່ຽງ": 10238,
      "ໃຫ້ທ່ານ": 10239,
      "ກໍລະນີ": 10240,
      "ວ່າທ່ານ": 10241,
      "ເຜີຍແຜ່": 10242,
      "ຂີ້": 10243,
      "Huyền": 10244,
      "quên": 10245,
      "ບູລີ": 10246,
      "ພຣະອົງ": 10247,
      "hiếm": 10248,
      "ຕາເວັນອອກ": 10249,
      "Chưa": 10250,
      "ກສ": 10251,
      "Đã": 10252,
      "ຂ່າຍ": 10253,
      "ແພງ": 10254,
      "IM": 10255,
      "ຮູບພາບ": 10256,
      "ແຟ": 10257,
      "ທຶກ": 10258,
      "ມະນາ": 10259,
      "ວໍ": 10260,
      "rov": 10261,
      "Đồn": 10262,
      "ກົນ": 10263,
      "ແໜ້ນ": 10264,
      "ຜູ້ແທນ": 10265,
      "cm": 10266,
      "ຖືກຕ້ອງ": 10267,
      "nhiêu": 10268,
      "Sóc": 10269,
      "lạm": 10270,
      "Kiều": 10271,
      "ການປະ": 10272,
      "san": 10273,
      "ຢ່າ": 10274,
      "GTVT": 10275,
      "Phượng": 10276,
      "ເພິ່ນ": 10277,
      "ຊິງ": 10278,
      "ເຈລະຈາ": 10279,
      "giường": 10280,
      "Thậm": 10281,
      "ແຫລ": 10282,
      "Internet": 10283,
      "tóc": 10284,
      "ດູດ": 10285,
      "mái": 10286,
      "ໃຜ": 10287,
      "ສະນັ້ນ": 10288,
      "1990": 10289,
      "ສສ": 10290,
      "lah": 10291,
      "ft": 10292,
      "chửi": 10293,
      "ເຂັ້ມແຂງ": 10294,
      "Har": 10295,
      "Mặt": 10296,
      "ສະເຫຼີມ": 10297,
      "ຂະໜ": 10298,
      "Bangkok": 10299,
      "đồi": 10300,
      "ເພີ່ມທະວີ": 10301,
      "ມັງກອນ": 10302,
      "Ken": 10303,
      "dỡ": 10304,
      "ພິຈາລະນາ": 10305,
      "ຫລີ": 10306,
      "ວິກິ": 10307,
      "Dai": 10308,
      "Shi": 10309,
      "ລາຍລະອຽດ": 10310,
      "tắm": 10311,
      "ສະຫນອງ": 10312,
      "APEC": 10313,
      "der": 10314,
      "ເກດ": 10315,
      "ອ້ອມ": 10316,
      "ວີດີ": 10317,
      "UN": 10318,
      "lầm": 10319,
      "ການບໍລິການ": 10320,
      "2019": 10321,
      "Semalt": 10322,
      "Cha": 10323,
      "ie": 10324,
      "ມານີ້": 10325,
      "ໝໍ": 10326,
      "Mon": 10327,
      "75": 10328,
      "dàng": 10329,
      "ສົງຄາມ": 10330,
      "ດໍາເນີນ": 10331,
      "ຂອງຜູ້": 10332,
      "າວ": 10333,
      "Bất": 10334,
      "côn": 10335,
      "Moham": 10336,
      "cương": 10337,
      "mê": 10338,
      "ດອນ": 10339,
      "Bích": 10340,
      "ja": 10341,
      "ປູເຈຍ": 10342,
      "ຕ່າງປະ": 10343,
      "ct": 10344,
      "ຊ່ອງ": 10345,
      "ຣັ່ງ": 10346,
      "ຈົ່ງ": 10347,
      "VTC": 10348,
      "bảng": 10349,
      "mạo": 10350,
      "ເອົາໃຈໃສ່": 10351,
      "ທີ່ມີຄວາມ": 10352,
      "bó": 10353,
      "Nước": 10354,
      "ການຜະລິດ": 10355,
      "Ty": 10356,
      "Bạc": 10357,
      "Jo": 10358,
      "Pro": 10359,
      "Ad": 10360,
      "ບໍ່ແມ່ນ": 10361,
      "tật": 10362,
      "ຖອນ": 10363,
      "Bá": 10364,
      "liều": 10365,
      "dress": 10366,
      "min": 10367,
      "ລະເບີດ": 10368,
      "66": 10369,
      "Mis": 10370,
      "Nó": 10371,
      "ບັນດາປະເທດ": 10372,
      "làn": 10373,
      "):": 10374,
      "dị": 10375,
      "ສຖານ": 10376,
      "xát": 10377,
      "thám": 10378,
      "góc": 10379,
      "kaku": 10380,
      "chôn": 10381,
      "ws": 10382,
      "ຈົດ": 10383,
      "Đống": 10384,
      "ສິ້ນ": 10385,
      "PA": 10386,
      "heo": 10387,
      "່ນອນ": 10388,
      "ວຍການ": 10389,
      "ezu": 10390,
      "2005": 10391,
      "ທົ່ວໂລກ": 10392,
      "CIA": 10393,
      "Sỹ": 10394,
      "hùng": 10395,
      "nhạc": 10396,
      "ຕົນເອງ": 10397,
      "Vị": 10398,
      "ຊາຍແດນ": 10399,
      "cus": 10400,
      "On": 10401,
      "ຊະນ": 10402,
      "khiêu": 10403,
      "Venezu": 10404,
      "Senkaku": 10405,
      "ມິດຕະພາບ": 10406,
      "ລານ": 10407,
      "Vietnam": 10408,
      "ươi": 10409,
      "ຈະເປັນ": 10410,
      "Nhơn": 10411,
      "ປິ່ນ": 10412,
      "ເຂົ້າມາ": 10413,
      "ວີດີໂອ": 10414,
      "ເຮືອບ": 10415,
      "ອຸດສາຫະກຳ": 10416,
      "Venezuela": 10417,
      "ນ້ໍາ": 10418,
      "đứt": 10419,
      "ເວທີ": 10420,
      "Sang": 10421,
      "Mc": 10422,
      "khơi": 10423,
      "sáu": 10424,
      "Môi": 10425,
      "quét": 10426,
      "ມີນາ": 10427,
      "ໂສ": 10428,
      "BBC": 10429,
      "__": 10430,
      "ớn": 10431,
      "bin": 10432,
      "Airlines": 10433,
      "ຍັງມີ": 10434,
      "%,": 10435,
      "CATP": 10436,
      "iệng": 10437,
      "Sal": 10438,
      "ỗng": 10439,
      "cự": 10440,
      "Mexi": 10441,
      "ເລກທີ": 10442,
      "04": 10443,
      "ຢ່າງໃດ": 10444,
      "sắm": 10445,
      "ຫ້າມ": 10446,
      "Serge": 10447,
      "ໄດ້ມີ": 10448,
      "ອຳນາດ": 10449,
      "chủng": 10450,
      "ທະບຽນ": 10451,
      "phu": 10452,
      "Yo": 10453,
      "Dầu": 10454,
      "Rất": 10455,
      "are": 10456,
      "ເຊີຍ": 10457,
      "ຫງວຽນຊວນ": 10458,
      "ແນ່ນອນ": 10459,
      "linh": 10460,
      "ຂອງພັກ": 10461,
      "ສົມທົບ": 10462,
      "ຈົບ": 10463,
      "ປກສ": 10464,
      "chăn": 10465,
      "Mexico": 10466,
      "ດູ": 10467,
      "Quyền": 10468,
      "ໃຊ້ເວລາ": 10469,
      "nia": 10470,
      "ມັນເປັນ": 10471,
      "ຫລັກ": 10472,
      "chừng": 10473,
      "HĐQT": 10474,
      "ສະໝັກ": 10475,
      "Cát": 10476,
      "Yemen": 10477,
      "Hệ": 10478,
      "mp": 10479,
      "ງົບປະມານ": 10480,
      "ຈັດການ": 10481,
      "Đề": 10482,
      "thiểu": 10483,
      "65": 10484,
      "້ວມ": 10485,
      "ເຄືອ": 10486,
      "Tiểu": 10487,
      "lành": 10488,
      "BH": 10489,
      "thở": 10490,
      "ຂອງລາວ": 10491,
      "dạy": 10492,
      "CQĐT": 10493,
      "CE": 10494,
      "dâu": 10495,
      "ເຮືອບິນ": 10496,
      "săn": 10497,
      "Lon": 10498,
      "ໃນລະຫວ່າງ": 10499,
      "Tính": 10500,
      "ຊາວໜຸ່ມ": 10501,
      "ເນັດ": 10502,
      "thua": 10503,
      "Triệu": 10504,
      "Địa": 10505,
      "ພ້ອມທັງ": 10506,
      "ພູມ": 10507,
      "Thúy": 10508,
      "ສຳນັກງານ": 10509,
      "Cương": 10510,
      "euro": 10511,
      "ຢ່າງເປັນທາງການ": 10512,
      "ຝຣັ່ງ": 10513,
      "Lập": 10514,
      "ຄົດ": 10515,
      "đệ": 10516,
      "ແຖ": 10517,
      "ເໝາະ": 10518,
      "orld": 10519,
      "ສາມັກ": 10520,
      "ພົນລະ": 10521,
      "ມະຫາວິທະຍາໄລ": 10522,
      "ແນະນຳ": 10523,
      "ເບື້ອງ": 10524,
      "vững": 10525,
      "ໂດຍບໍ່": 10526,
      "Đáng": 10527,
      "Niên": 10528,
      "າມີ": 10529,
      "lặng": 10530,
      "ຍົງ": 10531,
      "tọa": 10532,
      "Vậy": 10533,
      "Seoul": 10534,
      "Un": 10535,
      "miệng": 10536,
      "lận": 10537,
      "ເສົາ": 10538,
      "ປານ": 10539,
      "ນາທີ": 10540,
      "Ly": 10541,
      "wit": 10542,
      "ແມ່ນມີ": 10543,
      ")-": 10544,
      "ate": 10545,
      "BS": 10546,
      "Post": 10547,
      "ເສັງ": 10548,
      "Cửa": 10549,
      "up": 10550,
      "tainer": 10551,
      "ໜູນ": 10552,
      "now": 10553,
      "mãi": 10554,
      "cười": 10555,
      "ຫົວຂໍ້": 10556,
      "Vin": 10557,
      "ຖ້ວມ": 10558,
      "Char": 10559,
      "lash": 10560,
      "້ວນ": 10561,
      "ຊ່ຽວ": 10562,
      "Nhi": 10563,
      "ປິນ": 10564,
      "ປຶກສາຫາລື": 10565,
      "quà": 10566,
      "geria": 10567,
      "ຄຳເຫັນ": 10568,
      "đuối": 10569,
      "ສິລະ": 10570,
      "88": 10571,
      "Pan": 10572,
      "ຫງວຽນຊວນຟຸກ": 10573,
      "ຮາກ": 10574,
      "ເປັນເຈົ້າ": 10575,
      "ຢາງ": 10576,
      "ວິດີ": 10577,
      "kel": 10578,
      "ngực": 10579,
      "giản": 10580,
      "ລໍ": 10581,
      "Làm": 10582,
      "ສາລະວັນ": 10583,
      "ຂະໜາດ": 10584,
      "ຣິດ": 10585,
      "ອາຊີບ": 10586,
      "ການນຳ": 10587,
      "ອັດຕະປື": 10588,
      "ບໍ່ສາມາດ": 10589,
      "ຄວາມປອດໄພ": 10590,
      "bạch": 10591,
      "pa": 10592,
      "ກວາງ": 10593,
      "Bạch": 10594,
      "ສົມບັດ": 10595,
      "phế": 10596,
      "ລິບ": 10597,
      "nhựa": 10598,
      "ຂອງປະຊາຊົນ": 10599,
      "Wi": 10600,
      "David": 10601,
      "ໜອງ": 10602,
      "Trạch": 10603,
      "ພິວ": 10604,
      "Saudi": 10605,
      "WOR": 10606,
      "TĐ": 10607,
      "Rịa": 10608,
      "Daily": 10609,
      "Tự": 10610,
      "viễn": 10611,
      "Park": 10612,
      "nhở": 10613,
      "London": 10614,
      "ສະເຫຼີມສະຫຼອງ": 10615,
      "ຢັ້ງຢືນ": 10616,
      "ລ້າງ": 10617,
      "USS": 10618,
      "Buôn": 10619,
      "ອັດຕາການ": 10620,
      "Br": 10621,
      "zil": 10622,
      "Giải": 10623,
      "Poroshenko": 10624,
      "ເມສາ": 10625,
      "ປະຫວັດສາດ": 10626,
      "Tali": 10627,
      "ແຂກ": 10628,
      "lọt": 10629,
      "Am": 10630,
      "Môn": 10631,
      "sữa": 10632,
      "ngừa": 10633,
      "SE": 10634,
      "ສະຫລ": 10635,
      "ຊ່ວງ": 10636,
      "ບັນດານ": 10637,
      "Ara": 10638,
      "Sinh": 10639,
      "ump": 10640,
      "WORLD": 10641,
      "ໂບ": 10642,
      "Kur": 10643,
      "ວິນ": 10644,
      "ສະຫຼຸບ": 10645,
      "Taliban": 10646,
      "ທຸກຄົນ": 10647,
      "NĐ": 10648,
      "ບັນທຶກ": 10649,
      "250": 10650,
      "ຟື້ນ": 10651,
      "Geo": 10652,
      "ສຳນວນ": 10653,
      "dan": 10654,
      "ດື່ມ": 10655,
      "ທົ່ວໄປ": 10656,
      "Tuyết": 10657,
      "ວິຊາການ": 10658,
      "ຈະໄດ້": 10659,
      "CHDC": 10660,
      "ເພີ່ມເຕີມ": 10661,
      "ເລືອດ": 10662,
      "container": 10663,
      "ສວຍ": 10664,
      "kiêm": 10665,
      "chùa": 10666,
      "Teh": 10667,
      "ລາມ": 10668,
      "Bel": 10669,
      "VOVWORLD": 10670,
      "ລິນ": 10671,
      "ວນຊົນ": 10672,
      "UA": 10673,
      "Góc": 10674,
      "Com": 10675,
      "ເຊີ": 10676,
      "ỡi": 10677,
      "bụi": 10678,
      "ເຍ": 10679,
      "ສະຫງວນ": 10680,
      "III": 10681,
      "dọn": 10682,
      "ຝາກ": 10683,
      "ໃນນັ້ນ": 10684,
      "ສະເລ່ຍ": 10685,
      "wi": 10686,
      "Mọi": 10687,
      "ສາມັກຄີ": 10688,
      "ຮອບດ້ານ": 10689,
      "hổ": 10690,
      "ພາຍຫຼັງ": 10691,
      "ຕຳຫຼວດ": 10692,
      "ມຽນມາ": 10693,
      "Nov": 10694,
      "ອີເມ": 10695,
      "ຕັ້ງແຕ່": 10696,
      "ມະຕິ": 10697,
      "nề": 10698,
      "Khai": 10699,
      "ພະບາງ": 10700,
      "ປະສົບການ": 10701,
      "ລະດູ": 10702,
      "ຄໍ": 10703,
      "ùy": 10704,
      "Ea": 10705,
      "bột": 10706,
      "Học": 10707,
      "ວິດີໂອ": 10708,
      "ລວມທັງ": 10709,
      "ຄືກັນ": 10710,
      "rẻ": 10711,
      "ຮວມ": 10712,
      "ສະມາຄົມ": 10713,
      "ຕາງໜ້າ": 10714,
      "ອ້າງ": 10715,
      "mực": 10716,
      "ຮ່າໂນ້ຍ": 10717,
      "ໃນໂອກາດ": 10718,
      "khen": 10719,
      "ສັນຕິພາບ": 10720,
      "ມໍ": 10721,
      "Boe": 10722,
      "PVN": 10723,
      "hưu": 10724,
      "xương": 10725,
      "Bash": 10726,
      "ish": 10727,
      "ອາວຸດ": 10728,
      "manh": 10729,
      "ຮູ້ຈັກ": 10730,
      "Brazil": 10731,
      "ເສບຕິດ": 10732,
      "ພາສີ": 10733,
      "ລັດຖະມົນຕີກະຊວງ": 10734,
      "Điển": 10735,
      "hãi": 10736,
      "ຊ່ຽວຊານ": 10737,
      "cỡ": 10738,
      "Sun": 10739,
      "lỗ": 10740,
      "ຮ່າງກາຍ": 10741,
      "xích": 10742,
      "ANTĐ": 10743,
      "ລືມ": 10744,
      "Holland": 10745,
      "bây": 10746,
      "CHDCND": 10747,
      "Hong": 10748,
      "Gò": 10749,
      "bù": 10750,
      "ງຂ່າວ": 10751,
      "trâu": 10752,
      "ຮຽນຮູ້": 10753,
      "ຈໍາເປັນ": 10754,
      "ຈຸດປະສົງ": 10755,
      "72": 10756,
      "ຈາຍ": 10757,
      "GĐ": 10758,
      "Nói": 10759,
      "esh": 10760,
      "sốc": 10761,
      "gar": 10762,
      "ສ້າງຄວາມ": 10763,
      "Cư": 10764,
      "xạ": 10765,
      "Bước": 10766,
      "lí": 10767,
      "370": 10768,
      "ຊີບ": 10769,
      "tional": 10770,
      "ເຂົ": 10771,
      "2001": 10772,
      "Shin": 10773,
      "ແນະນໍາ": 10774,
      "ການສື່": 10775,
      "xao": 10776,
      "Up": 10777,
      "Thắm": 10778,
      "Tướng": 10779,
      "Bashar": 10780,
      "ana": 10781,
      "ເລຂາທິການໃຫຍ່": 10782,
      "Phía": 10783,
      "ກໍໄດ້": 10784,
      "Sáu": 10785,
      "Bái": 10786,
      "Chợ": 10787,
      "ກຸມພາ": 10788,
      "ໃຫ້ຮູ້ວ່າ": 10789,
      "ມາດຕະຖານ": 10790,
      "ຫຍຸ": 10791,
      "dy": 10792,
      "1A": 10793,
      "éo": 10794,
      "ບົນ": 10795,
      "1999": 10796,
      "ຄັບ": 10797,
      "ima": 10798,
      "ຄົ້ນຫາ": 10799,
      "gãy": 10800,
      "ກະລ": 10801,
      "ປະສານ": 10802,
      "Tô": 10803,
      "ທາຍ": 10804,
      "ອິນເຕີ": 10805,
      "vứt": 10806,
      "ek": 10807,
      "ນັກສຶກສາ": 10808,
      "”.": 10809,
      "2004": 10810,
      "bàng": 10811,
      "ເຄື່ອງມື": 10812,
      "Merkel": 10813,
      "ອາຈານ": 10814,
      "ເກມອອນໄລນ໌": 10815,
      "ອົດ": 10816,
      "ເລື້ອງ": 10817,
      "ຫລຸດ": 10818,
      "Trinh": 10819,
      "ngộ": 10820,
      "gạch": 10821,
      "mát": 10822,
      "zo": 10823,
      "Tehran": 10824,
      "ລັດເຊຍ": 10825,
      "ald": 10826,
      "rửa": 10827,
      "lọc": 10828,
      "ແມ່ນການ": 10829,
      "ກວດສອບ": 10830,
      "ໃຫ້ນ": 10831,
      "gã": 10832,
      "đức": 10833,
      "lỏng": 10834,
      "Ah": 10835,
      "Hollande": 10836,
      "Bỉ": 10837,
      "ການສື່ສານ": 10838,
      "ຄະນະພັກ": 10839,
      "ຊ່ອຍ": 10840,
      "ຂົນສົ່ງ": 10841,
      "bẩn": 10842,
      "tĩnh": 10843,
      "ຍຸຕິ": 10844,
      "ປະໄຕ": 10845,
      "ແຍກ": 10846,
      "Gen": 10847,
      "Yến": 10848,
      "canh": 10849,
      "Phone": 10850,
      "Trump": 10851,
      "ey": 10852,
      "ແມ່ນ້ຳ": 10853,
      "mìn": 10854,
      "KSND": 10855,
      "nhắm": 10856,
      "Trưng": 10857,
      "IN": 10858,
      "đế": 10859,
      "uss": 10860,
      "ໂຍງ": 10861,
      "ຕາດ": 10862,
      "LS": 10863,
      "lồ": 10864,
      "ẳn": 10865,
      "ເບີ": 10866,
      "ມືຖື": 10867,
      "Kiếm": 10868,
      "eng": 10869,
      "bơm": 10870,
      "ຂອງເຂົາເຈົ້າ": 10871,
      "ເກົາຫລີ": 10872,
      "ສະແດງໃຫ້ເຫັນ": 10873,
      "TM": 10874,
      "Vịnh": 10875,
      "xá": 10876,
      "2003": 10877,
      "QH": 10878,
      "64": 10879,
      "ທ້າ": 10880,
      "ຈະບໍ່": 10881,
      "Ali": 10882,
      "gọn": 10883,
      "ຊົ່ວໂມງ": 10884,
      "Lav": 10885,
      "ອາເມຣິກາ": 10886,
      "khổng": 10887,
      "130": 10888,
      "ngập": 10889,
      "Vợ": 10890,
      "ຂັ້ນຕອນ": 10891,
      "ຫໍ": 10892,
      "car": 10893,
      "Lệ": 10894,
      "mon": 10895,
      "ການປະຕິບັດ": 10896,
      "Flash": 10897,
      "ten": 10898,
      "CL": 10899,
[...]
